module {
  memref.global "private" constant @__constant_8xf32 : memref<8xf32> = dense<[-0.0442584679, 0.0343669318, 0.0432738774, -0.0237650368, 0.0289943442, 0.0899450332, -0.00377512071, -0.101703987]> {alignment = 64 : i64}
  memref.global "private" constant @constant_600xf32_0 : memref<600xf32> = dense<"0x06A3933D407A53BC0694003DF1BDBD3D4496D5BDAD1AC7BC192A923CF891293DC4A66B3D40FD923D0250D33D2533DE3C021BDDBD1094F9BC3408C13D83263C3D4C4E6CBC3CD60E3DF9A1E63D71E4CB3DACC8AC3D9316B43BBEBBA6BD0AF8EC3C71D5D53D9219FB3C01120FBD8AF7DBBDA6B582BDA2CA753CA073BA3A21895D3D1C7A513D60780DBC97504F3DB796303D351BA53D20526C3D579EC03D4F9F9A3DB99B7BBDB2F890BD364DE4BDA6472A3D8CC6A83D290B283D950AA63D845D74BB0AC0163D38533BBD14455C3DB07F893C34471A3C11D799BDB4E60E3CB47620BD2989CE3BF69469BD3FCA153D3208433D281B0EBDBB00C23DF4F6723DA32FDEBD37F9A6BD8ACCBB3D7BFB38BD379641BD7572BABD4230C5BD0D3EA93D3715753DEB01B9BD5621CABD9F62123D2D3EEA3DB97A9F3D591E4F3CE537913D2DB8D13C8E3A253D7FFDB23D8E84D33CF3C0E33D76FCB93B3DC6553D112403BD612F6D3D4F082B3D5A9F33BD2ED953BD00EEC2BD4639AC3DF2CBE63D5F9D79BDBC5F903D5D31D6BDF7D2333DC791C3BD63F4BFBD878EDBBD3C9D90BDC8CCCE3DAD95D0BD6D4A8ABBB85C0DBC8071DEBDDC8CB63D756CE0BDB601DB3D178C81BD9C9AD3BDA0F760BD991CBFBD5BB261BDFF74DFBD10311ABDA8BCC2BD9F81933C72D1993DB07A5B3D8E6F883CCBCBBABD7D4DCF3D5B64DABD565797BD3226B53D587BEA3D1B82C83D3A25C9BDD47E6B3DDD65E23DF5F3A13CCC3C33BD7E57BD3D6516453DE9B36DBD2ABA96BC47EE91BD3C7946BDA180EA3D772781BDE5CDE73DB3FD623D5961313C04CEEA3AE1CB9FBD3D5E51BD78A1E3BD4EB5BABDA888BABD3E273FBD799A6EBDFA3E103D87C9B5BDD4D391BD8B8B20BD42D718BD67BC99BD099CE33AD697DB3D768FB73B7017D2BD58FDE53D090468BD212383BDF2818A3D87FB643C83469A3D538FAB3CA19B323D7E63B43DF965C33B3B4B7E3D72A890BD51E26CBD70DFCE3D2639E83CBADDC43D692674BD97378FBC0560AD3D6EAD3BBDBA7918BB74CC163D56CB77BD7EEF40BD4838BFBDCC7EDA3DB0A8AEBD0454753D7812D3BD95C6903D03E815BDE917953D67F43ABD27A42B3D158CAD3C52D5D53DBE93D23CDDF0A93D28AD9CBDFF091DBC8C2A763D907FB5BD2B82823D88F1523C4781273D3E944FBA2762243D1B93B73DA660CCBDA1675DBD5F2FC73D6ECD313CF5CE143D3E6BD2BAF2C95F3DBDBAE5BDB03BDF3D28A21D3D8D528A3DC3649BBDA5FF773D4A62863D7F6FE5BD6D3EC03DF996763DB522903DDA32ABBD0CA0B4BDD7E4A73D85BA633D564642BDFC86013D0377C03CF0A8CB3D60ACDCBD37DC023DF0D210BD3829FABC814E96BDFE0308BCC5769FBD0C2B27BB5AB9223D7C92673D190C15BCA6ABD0BC0E935ABCA5BA10BD67EC933B3EF5433D780D9A3C0A06E4BB81DE93BDA4CCF93C7DF0C2BD164A023D2E4B7B3D84588BBD11AC863D6E62CDBD9AAE9C3AAEAEB83DC7CF9F3DE521DDBD1AE5313DA728773D84DF09BD7B47DCBDE113E6BD1008B53D589ECA3DCD4F35BD087ED03DFF2CC13C8793103D8E3447BD29918CBD16C877BB464E433D1788B03B0FBC1A3DDB21BBBDCA1967BD8AFC8E3D9A1193BDD29B8BBDAF940B3DFE93333DB05C403C1945BF3D499B363D6E1961BDC61FBC3D33455ABD94F2B53DB5B5653D08927C3C3B1E80BDD0F8ADBD6CE3DABD3F90B73DF6FDA53D0C05923D659D673D0FBACF3CCEFA323D6458BBBDB698EABD9949913D380BBEBDE6B7AFBD548C47BD6DE6D93DA6422C3CA4C1C6BD3748653D1909BF3D5025CFBD3C4B5ABD9CD6D9BB1BBB60BB4D2AA6BC355CE6BD5B96573DDB8EC6BD42F08C3DBF63B03CA928AE3C3B0AEB3C49EA8D3DAF9DD5BDB60E373CEA2BA73DB26AC73879C55ABD2C37C5BDA987663D3994E53DFEB3693DBB4285BD928C613C80B5BD3D1661C6BD3380B1BDEA70A53D9E81F93C408F583BA1793ABB7D0FC2BB82A8A23D532B833D2D1C813D2527153DB884163DDD10943DA709A33DE8341DBD18FCA23D537DA8BDE655EC3DE9AEEA3DD30AE3BD82F8ACBD84273F3B4909CBBC2F0BD7BD60479FBDC677B53D600456BDDB3F953C44C3D9BC0BAEDD3D560FD9BD78A73F3D3D81DCBDE30965BD9CC8E2BBCA254C3D7D6AABBC819995BDC4FDADBBA13751BC1800D9BDA89ECF3DE8E0F9BCEFE6D6BD3908173B996EA53D3DB30B3D0A9E97BD09C6AFBD07D2C23D07CA573C1A9A9DBD1FA6C13C0F4EE53D4F1EBE3DD91764BD1179803D7043BC3C604C13BD4D9BBB3D57FFBB3B0B11433CC896C0BDAA6962BD1035BE3D3234DB3D107231BDCD27C33DC3FBE23BBEEFADBDDBABB63DC787CD3D2ECB17BD1FB9D6BD6C368EBDFB6CD03C1BB554BD2AE7DB3DF4C2CD3D9F0C2CBD098B49BD4B74E53D75C4E1BCA324783D7BE09BBD8EFD92BD0686B6BC534340BD223DA23CAA5F2F3DAB2EE23D2394A4BDF8529ABD7344DC3D6F04323D556DCD3DFA1AA5BC13C0833DBE0E003D76E0D4BD9279813DD2AC963DA7839A3BEA7757BDA3DF1A3D55CC77BD81D4E7BD9C3D043DBEF0843D67D103BDA7D4CFBD449CAFBD05CCE13DDBBAD83DA809A43D13568C3D8A0A653DF82C95BDAD3248BD76A9F63C015AB8BDDB6B80BD5EC3223C687BE6BCFC0F003D65BAC93D9BA9273B2D518CBD81B0823D5A2A953CA0C412BD1356A03D5CE540BD75F11CBCFEEEE4BD6FE0E4BD673C073CC29F9EBD1627163D562FDEBC41AA363D3A78CA3DA6846ABD7014C53D5812A53DB0A3CFBC6E9D743DDD51C23DD7E6423C4EE4FC3C78C0673DC148F63C76968DBD124110BD40AD60BBCB53143D23EFDABD443EC8BC0ABD893D5B25063D46473D3D2D3D1D3DD63DD13C53611B3DE43BB73C7466B03D6DA79DBDA926933D903B93BD368EA1BD4488ADBD00518D3BAD1055BDDE96B1BCEC94623DF70B7FBD6EEC373D281EAB3DCC7C4CBDE03A7ABD5600923D34F193BD7DCA0C3D02C955BD5EBBDFBDA2A5E83CF69EFDBB4F996C3D0B204DBD0C7BD23D7884213D10C43ABD1C0DB23B768984BD6B05463D4537BA3D60829ABD54389DBDD65EAFBD880D823D94CA743C55E19DBDFD978B3D5A458D3D3471E1BD89B9803C0DC7B03DC386ABBD1635ADBD3FAAA53CF6A8EABD2BB2023D8C63A33D8017D13CB51A55BDED08B2BCB367C5BD2AA1B03DB2B0343D2005103CB1BDC7BCE5ACD63D1866AD3D4A92A4BDCCC638BDA169CC3D8EAD463DADC7DCBDF3C6213C0EA37FBD1CB037BD62CF52BDBEBCC33DB77180BCD2039E3D003DE43B8EE7BBBCFA2E863DF24DD13DB5561ABDA102013CD0351E3BDED97D3DFF8DE63D025CA43D9403DABDC5F5053D5F4CBD3D458EB3BD5908923D0F15AEBD2A4DD33D4FA07C3D709209BD2810993C"> {alignment = 64 : i64}
  memref.global "private" constant @constant_10944xf32_1 : memref<10944xf32> = dense<"0x4EE335BB1772A7BB059C15BB1549A13BB781DCBB31E7573CFE8DB33B1648353B2C191D3CCB7F413CC06525BCC723B53B5AE5E43A53B06C3B494107BC61D0B63B6B7D483C0BBC3CBCAE6C113CAE8D5CBCA34177BBCB02A8BA5F5720BC2F69023C098BBDBB0B3601BCC8A89EBBF310CB3BD1F3CABB551C19BCAA1E85BB53AD9EB9CC3F3EBC6925753ABDD99B3B46A60CBC5A0D803BD412453CCC9E133CBE30CFBB4A2FD5BA6529E03A6D3837BCB75E0B3C89F44ABCEC64223C2ABBA2BA0391A23BD78691BB9A114DBC7166BCBBA0D103BB44DC4DBC4B8609BC5B1B09BC22C3553CAA58533CCE1B0E3BFBEE4F3CFE16193B70E29F3B797941BBDC969C3990D0BBBBE111CE3B0E9742BC9906403CA5F108BB0F94DE3A279F97BABFB6AD3B9B22E4BBFDFDF73B9F8DBA3B3820EBBBA7560BBCAC13C63BB8E3BDBBB61B57BCBE0A593C3E088DBB19D4B6BBAB20FFBAF25259BCF21E463C8F94D2BAFA9DBC3BABB731BC07B936BC16A63E3CF78AF2BBE5EF193C71EF2EBCE5CD403C0567F23B3AFF19BCB418B93B64E3143C71FE00BB962A2EBB1A1CA43BA066753B84D543BC4B2EC43BBA68A4BA4BD96439A6F0B4BABD9A423C03CB253CD1F2D5BBA90632BC4DCBCDBA3EC6E83B9E501B3CB4F5043CDC02433B6060AFBB148C1DBC322B433B95A9353B44DF34BCB54F393C7FEAE83B11520EB991304FBB7A24B7BA1027CFBBD8DB67BB1321143C51A9B03BD59EAABBED5E3BBCF1D1963ACC5E443C4D4B02BC73C9323B4415013C6169BABAD8FA59BB9169EC3A1F6350BCF19527BC4447403CB4062CBCFA8D42BBE5F1A8BBEA0555BCBBE8503C5BE5C6BBC489BE3BF4DCCFBB549250BCDFC1083B69F3383C170F083CEBAE333C595066B97DE2B0B9EAA6083C26DC08BA0FE8783B51823D3B9A870ABC7622B83BCE7C6D3AB40255BCBD5878BB511701BAAF5C3A3C47A6A33B520F01BCD5DE0FBC7D8A693BAFB0F23B832FA73BBF05BC3A37D4453C3234563CBF18293C1C4C943B5F7FEE3B629B423C43BA9D3ADCDF9BBB0A69C6B9F4B8153CBF54163C513FB23B7F57553CAAADD13BF36FD3BB5FC3F8B950E80A3CBAF7413C87DF96BB691E4EBCF43C12BC50E2FBBABBF950BB4AB8C4BA639F2ABBBE741ABCB3BD40BC591848BC02F5B03B4CF4F6BBDFD734BC0A5DD13A6328223C4FD6033CD822343BDDBAE4BB13BC00BCF6440CBC5D9D403C98723FBCFF7656BC1E3513BB95FBB7BAF9F5433BCFC00EBB740F5A3C0A67073B0CF658BCE8AC563C513CA63B08E151BBE77E1E3C26DFA3BB9AFF68BB8C1FB43A72FA0C3CA96EB0BB65D7683AFD5119BCE170603A27945D3B9DF3A4BB2C88A4BB24214EBCFDD40A3C59CF95BB5280D2BBC9C3013BB9012ABC9A1B00BB20891DBC5B46D0BBF81B8A3BBAFFCA3B69B4C33A1413ECBB1278D53A69A8113C44F0203CC60145BADB561EBC266F283CABA8583CE7CB3ABB12F9DABB24FC9CBA1A71913B6A4F673B1B31033B4EC6083B7F48C0BB10BAF33B50861E3B233E2FBC0688153C0534E1BB9B8A23BC3CA42A3CCC5C35BC0E2D0BBC1E9C9C3BC3335DBCDCD834BB9D861EBC7837DF374CB34CBC05EF11BC065E013CDB753B397E0D283C712C4E3B08284CBCF758CA3B8AF3F8BB7D772FBBD5434D3C8923903B329ED2BB93AC0D3B6476D83BA6006DBA7A350DBC4DE259BC6B22E0BA5900D7BB602F8FBB8736543CD857C93B93360BBC1670F73B0FBF773A05E538BBD9F9313C0A342A3C661A983B001F2DBC738220BCE19C583C020C783BC442563CD2F1AC3BF9BCEE3B7C6729BC9DC4EEBB87F430BC0BADB73B3C35B0BB1EEE2D3CCA343E3BDFEA22BC0D050E3CF3E42E3C0A0C9B3BE546873B40EE403CC84C983B5BA3E1BB948E433CC3FD0ABC3E33593C90B558B9F2819F380667FA3B1D893F3C349F1B3BE9EF17BB8A21343CD9F7603BAFEC093CA1981D3B98C1A5BB114EB33AA04ED33B89E3D03BF96613BA6C514EBC0A01BF3BDDF385BB4A90223C3C70AD3B45164ABCBCCBD8BB59E6F3BB8201493CABF33F3C03A4E83BBE1157BCEBC8B5BB243649BB78BCE8B9C0F900BC972B493CD56CA8BA9CDFD33B9F3FE0BAA2E1D7BB7A954ABC68D14B3C36E230BC9C2E57BBA28D113CA2B9CCB95480003C106CF0BB249D093CA21D303B890AF5BBC6E654BC5C79393CD9ABFBBBACAB0A39E7B83F3B7759BBBABEDEE33B93A8B0BBB5181B3CD957253C964B6ABB118D0F3C56DA3CBB9DF38D3B9E2930BC3FED403C8FB0843BCDEAE13ACC5454BC7B15E03B05ED293C7C40213AD8169A3A0A98813BF545BE3A346B7ABB4636563BCADB053C237E1ABCF776C53BAF1155BBEBFE7BBB491AF4385E3E903B483BB83A2C14343CD7F4433C7655463C97A044BC32D58CBB5417B5BBAA63B53B5A9B18BC86E72A3C7C9E27BB01A18BBAA65982BACACB243BFD7EBE3BE64CC23B97B8E5BBBCCA98BB6FB615BB0BB292382B39C93B8C5C3BBCEFD6113C7E18003BBF6C1ABC7F72CE3B6B56473CBF281ABC3E6DE33B5ACD9DBBA45440BC139EC4BB2EFD5A3CAA6F45BCE33A09BA3750E5BB89283ABC67B70CBB4D260C3CB24CD13B559DB63BE50F2B3CA23D06BC1F10083C46CD4CBCE5A0E43A15D5AA3B78795DB9A938173C3D5A95BA8E1E393C9A23553C7F9382BB38DD2EBC4F23183A040F583CB16E943AD853333CC7DC403C85B70FBC13DC043C8B78E23B8DF3143AD659B5BB625E253A946998BB23CFDABB8CA10FBC7B2CE83B45540DBC49EB4DBBCD8DE9BBDDE3E3BB57E863BBB43A513B44F22DBCF4E76B3BF5F044BBD27E9EBA6501DE3B60A09C3AE112E73B72B5FA3B82AA2F3BF762CC3B19860A3C577D00BB4C990D3BE62FB9BBEF7E59BA2C585C3B234D5ABCF7B01BBC3A10453C6841AABBB3F6A23B3F47AD3BBDFB30BC488A493CD0B211BA927F06BCFED20DBB7D3754BCB8328D3AEA01233CBE0F163C0B3055BCCAAC0CBCA1FCCCBB8FE338BA2C55D1BBD0371BBB616F08BB0170C63B8425C53B49E7E5BB4CC20EBCD9BFDA3BACE0643B619729BCA40F5A3CE348A7BB01F3803B7DE9203C62FC53BC594C8D3B8613143C48A6513CD346873B03E538BC0EE4233CAEFF05BC49236BBBC9A1D83B2E6E37BCBC0B363CE94229BC0C9936BBEB1F303CD856D3BABB9416BCDCD611BC63A658BC7DCA5A3BC4251C3B56FC2A3C904B33BC557FA03AF7BCAC3A318C583C359FC7BAAA0E26BCD58598BAD6258ABA63F2103C997FF2BA0EEC02BCE7C3093C23FA43BC6B738B3AB3D0BA3BF073C53BF4B044BCC84CD7BBA7D29CBB2B9017BC3EE030BCF19FD0BA802B5D3CE7725ABCE83422BCB2941CBA9CF612BBE7953EBB535DF4BB335CDE3A900D463CC4EED43B497FF33B3B57813A5E1014BCE28E55BCDD008DBB98E10D3A3B2D52BC17D23CBC2ECF8EBB903E093BA39850BC6EB7313B91604A3C65DE2CBC134F92BBC7B151BC0123933A984C18BBF58946BCB8D658BC58E9483CBE43F9BA4A9C383B75CCD23B86F8D3BAA5559F3B72F5ACBB20B19DBBE06309BB6E33B5BAA6DFFC3AD66026BCB8C03DBBAE1A8E3B883431BCD757A5BB6A1AB1BB4A3F253C282983BB189F46BCBE06073C9B3E413C624943BCCC75C03B651C0ABCF797EBBB82DE023BD7AC4FBC924CA13BE8DA6CBAFC5D493C6BF9213B1B7B2E3C44C0F63B7107243C84F034BBA382353CD871F63B1ED448BC4D922CBA09B1B03BC7F556BC43D08DBB42B5513B6D7DC73B34AAC23966F0183CAFE2693B6F7E65BB5867DA3BA98BBC3BEAEE933B78A0443B8EDC04BC152C63BBDD7024BCA946313BD57B393B5707103C5BBC593CC68629BA65F37FBB7CA40BBC7ECD113C4FA4123A18713F3C2B4A9C3BAF3F51BCBD73B6BB165D1F3CCC5ACFBAA025F7BB4F3E523C618BADBB70F02A3C523AF93B3E49123CCEFE48BC6D07943BD22D553CEAF1BABB3388953A9B22E23A1D75123C88D841BB115B0CBCCC433ABAED1B713B77E253BBC00E543CEFE939BC053D19BC78BCB5BBD60702BC0C984BBC0AF314BC8BA320BC36D44ABC7681FEBBCA3D283A50DA403C78BB713A3E733EBBE9CC513CBDF7163A6119493C8433A43B303A373BF536043C94F3223C0E2EF2BA0003503C2A112D3CB2E5573CB931E13B5AC43E3B6862063CE7779BBB10F21D3C0E8A0D3C01111FBC3BAC243C626F2B3CCE385CBC24C36E3B5570DC3B160C96BA15F649BC570697B85E0241BC51174ABCB647323C0350013BDAF49F3B0D03B33BC9D2ACBB0103F6BA13A898BB1FCDABBBC1291A3C7CF0B93BA63C5E3B473E3E3C31C0493CC9AE383BA315FF3AECED13BC1B1E1D3C4F7AAABBD3A2103A4996973A3B03163C865AC4BA05E8F9BADE12A7399577203C314AED3BA1A4BCBB54B11CBC3C95AC3B28EF3ABB12492E3C4CD69FB9372DF13B23FA3FBC1371C2BB472A85BB4CCA423C28E25B3B4FAA92BAF2C6593CC002DBB9FAF835BC3D51CE3BB1D1753B3DE8043C2FE368BABC9840BC9C5FCE3BC2B0A03884B1DE3BE63A0CBB5AF29DBBB97F293C7B9411BB64845CBCE92986BB7CB495BBF63616BC006B4CBCB6D4243A2763833B79E43FBCE35323BCEDD13FBCC5BA443CC1DFD8BB08D59DB93BF02ABBCBA63B3C3C78E0397C8B09BB15F5433B665595BBC68942BC7F24FEBBD06C38BB74EF3ABC61630ABC9D2D6B3B81B39E3B1C80B5BB3CE929BC5D9CE7BBC967D0BB3E331D3A8A93803B5F45843B2E032D3CDF1A583C8A8685BA7BE08FB779EB07BCC540D3BB6B684E3C0B140E3C3DC2E93ACDBD6B3BC687A73B6C9C313BBF95ADBB828C3F3C29DC55BB568CB03BC8EE2BBB2F3A413CE694313CF898DBBB683943BC146495BBF9DB563C20191D3CFE5CBEBB8B39D93B45A0463C76EDA73BD0E8EF3B9A0A21BCB0EF373B1ECE2EBC278C3BBC9E4B823B032A343B441B1DBC9DBF2CBBC92BEE3B47AB3C3C0FEB3D3B398C323C9F035C3C69944B3C8215AF3A6191283C5A0F1CBA69EE313C3F99BB3B08DD493C2704133C52DF20BC22AB383B5BF482BAA82B433AC1E48F3A48CF0FBC710B1F3BEBEA8FBA20FD033C5FFAD8BBE6A022BCFFDE73BB07C1393CADDCC73B0649A73B6D6F823B6D56133BA6B72FBB5E1D2BBC70A9003A03DB57BC20934C3C32E8ED3ADB527B3ACF57C23BA4122F3B9686E63B7BC638BC886FB83B4210CD3B6C42313CE56E403C1640163C355FE5BB3D08C3BBD583A43B6CD2553C327D483C17529F3AC0502DBB9B1907B97691143B7D131ABA42D6E9BBA38D24BC7419073CF57C05BC4E917F3B0FD8C2B9EA605ABCBE98D63BF8910DBC310FCBBBC5021EBC75F25F3A3DC250BC784319BC0193513C4D56F03BDE12523C5341463BE8BA153C6D59C73B2D4836BCB37D9F3BA8269BBB9CBD57BCE0C732BC4497DC3B12AE69B730010D3A797300BBE2CA50BC9628C4BB78035A3B9047B43B32334D3C302C1B3B2F42F2BB9831543CE3499A3997140EBC027D52BBFAE589B9A54DF3BB3CCCD6BB7C2B40BC695925BCB1450CBCA9E428BCAAAAAABADB42B4BB91DF51BCA8600A3C893AD6BBDD5C37BCB93540BC037D1D3CDAFBD2BB2EA6FB3B6003CEBBED52323C237B0EBC2967C83B1A4EEABB64AA12BB666DD03B272B143C4AFDE63B68FFAF3B6884433C8A184C3C0A88203B59753CBCD6B85BBC6A4B40BB1582233C0E568E3B18B2F83BFBF046BA5820CFB83DC94CBCB64D4EBC868F24BC2D8C15BC1537083CC1FFBDBBDFF0313C559C92BB939D93BB883A46BC20A7F2BADBA732BC07B41ABCD630DABB700D483B53902EBC6E8124BCEAFE4BBBDB4F0F3C63457D3BD071ADBBA8EF3BBB0271243C7E6C413CA3A45A3CC963453C2802B73B0E1A9EBB9EFC373CFFB85A3B835FE93BA520CC3BCB3508BB2E712C3B04A47F38927D1E3C8B9830BC1D164ABB70A45B3CFDBA0F3CBFE912BCF21205BC645F1F3B81DC453C95DD5B3CCF879FBBF160943BF77A48BADF438DBB01AEDBBB9F8E52BCDB073B3C7982373CA832223CB6B599BB5B0C43BC6E744EBC5064113C450AF13A24E9ED3BF48C40BBD0E4053CBA80583CCA080EBC676058BC3DEA2CBC58B240BB7F3806BB1EA587B99090273C7B32D2BB13FCFD391635A4BA881CC23894422ABC0EB4F93A068A1EBCFBE5DC3B036DA3BAC55A4ABCD423B8BB6FB2213CC91D13BBEE014DBC960916BCE3DF343B9DA5963BEB22553CE60D94BB2F30DDBBA4694EBCA2A61FBC2B0406BC171DCABB2300093B18D7553CA50690BBFEB0823BFD89C53A7DB85ABC0BEDF13B64E224BCDED3A83B5CA0763A9E8C11BC2D3B4EBC2E41093CD9E3403BC04791B96A640A3CDD261FBC58FF103C20FCC33B109C05BCA1BB153C74F2A4BA1F67FABB6A7AC5BB63ACD7B78ACF933B378B873A68D074BACEF2973A8FC44E3CD003373C577AE2BB9906ED3862FB84BB721C883BEE0635BCFC2840BC7FD17B3A1902793A2173B7BBFEE4513C50A39ABB5A9296BAD6A45D3B05CBA2BBA74390BA2085F1BB145E2DBBEDCBA2BA1AAA99BB9676093A1EE9C4BA38BDAD3992449EBB63C6B8BB690EED3B71F6B03AA6304DBC9511B5BA10C86CBB9474D83B279C21BC06802C3A55EFD3BB470D223C84E78B3B7384B53BAFA32E3B3097503CECEC443CFEB842BC130C86BB1AFC06BCF3F206BC84421E3C851D643BF06A49BC323917BBDCCE7CBBFE8306BC7D1B3EBC9BD103BC4899083CCBE08DBB1B7F4ABC2415003B3BFA05BBECB92EBC96AEB3BB8F60B1BB743146BCBC532DBC386D3FBCA7B217BCD563E43B6FA445BC768FD33A9FB61C3C496EEB3AA41B81BB9CBA233CEBBFA7BBEC0B5B3CC9A92A3CC6A6B1BAC5E6CCBBED450A3C644A0CBB4E2390BBE03DE13A3EB0263C2E6EC33B27BD7A3B884140BCAA605C3C5BC8613A4BC885BA232811BC1B1500BC87B133BC2C1C98BAA64393BBBECDDCBB0AD7483CB9735E3B60EA3C3CCC892BBBE533D7BB4DFDE93B291420BA891D563C5733A5BB8DBE533C8FA9F0BBE5F15ABC4B26093C070B803BDEEF643B3801003C12202A3B4C0CB4BA7518F83B79621DBC26AB18BC8A9430BCA56CA7BBBE4215BB7F6AB13B12DC253C4D7CE23B0378273BD94DB5BBB16C143C63DF02BC4F733A3CED810F3CE8970C3C012F96BB89237FBA46DA5CBC4CF02A3CDEF13FBC96455D3B33075A3A6B7E913A3BE827BC30B8363C77E9F83BBB5BC13B2A689F3BA38F523CE4C1CD3BA95D25BC9B990EBB8047ADBB8B9121BB6A43013B110A263C947E9EBB351CC2BBEABFA9BBB6F8123C6774FFBB7A8338BC286756BB9F94553CC562AC3A18674E3C23EE453C00BB5CBCCD75AFBB487742BCB99E52BB09A3413CD7FCABBB8D4198BB6771993B3422BB3A16D2253C2CA03CBC9D0646BC0AEC1CBCC0F4BC3A71422C3C3C6D5CBBADFCAEBB44BDAABBA8231CBB6FB709BC1FD7473CFE7646BAADB1DE3B72C4BF3BBB809DBA5883FA3B135F4BBCB09E41BCDC3300BCAAAC10BC170A373C73A2313A7100393CA834D43BF11D26BC2831DEBA754F3A3CCE680CBA4491B43B68770BBCCE6B26BB3BC9A7BB95A8423C37913B3A082E103C2E08BC3BA37E71BB84A164BB85AC433CBE7250BCDCC2523CF0FE4EBC0D31293CB549E9397D21463C419CDB3B61A55B3CE7EC913B0C69F23A7EC3C7BAF6A1F03B8FAC8EBB14F9C7BBF478C4BB191F69BAB87E183BC87F373BF2805CBAD6A80BBC99AEE63B2C692B3CED1764BB47235BBB631E98BA200D05BCDAB930BC72972C3C80DC08BBAC8E063C30AD923BD0D9533CB86403BC1E38203CDE781EBCF9DC883BEF3B29B918B63D3C87EDA9BB1D74DDBBD92FB7BBD678CDB916A357BC4B27DBBBD278A9BB609B1CBB19A6193BEFCC1B3CB7F286BB9938F23AB8454C3CE746F13BA7262BBC69C2223C0428BA3B8B5C333CB3C256BC695455BB8C494F3B046E893B0BE7ED3BB6FC98BB4C3B1E3C9B2A393C68D84BBC0718373CB9B3163CE5C4173ACAC1A0BB19D443BB543D533CDA9DC03A3A7A4E39FB5D0ABC33D2303C8D3538B8316CDE3B1046023C9E5620BB38C22BBC582CC7BB7D26A33B3E02BC3BA796593C37233CBB84551D3C94492C3CDD82E93BE26885BBF95B313CF174B73AF9F6433BC092913B5A76653BF566943B1721A7BBB563C13B7004B7BB541683BB9B4E0CBBC4474BBB4BDA56BCE128D43B6FA92E3CB5E589BA140C2FBC55B6823A7898CEBBEF94C93B68F6043C23D4F6BB1AC2C4BB680A3FBAC73489BAD2BB7E3BD8E9EDBBB2C7A33A903FA4BB31CB833BABA1A2BB32AD8D3BA38AA93B4157383C6D24213CF9B4963B4A4910BC6F0FDABB0CB84D3BA8B60FBB492653BBD3D0F5BB0EDA1BBC7846013C1C3FB83B9C6AD13A90FA583CEE1E6F3B123C34BB752563BA594850BCFF061EBBEBFD173C11D2443C705509BBDCBC5ABCFF36B93AF02993BB6CD72BBA413F88BB076C103CD6D63CBC83FC30BC0448F8BB9902883B1366133CFFC154BCE520AABBC91991BA0AAD213CD9E4423C7CB50CBC8A1F08BA3219B2BBA31A05BCD2A794BB2B44203CBE9189BB86CF2D3C2B6D173C9FE8D83B9683593ACDAD21BCC2338CBB479F383C13A23A3B50E0303C3E6440BC2A0D33BCA0EECB3BBE8720BC7816423CE9ED23BC0065D0BA9DE910BCB515A6BB830B0ABC341B0D3C0AFF093CE9773BBC05E1E93B75F3593C96343CBC47D0FCBBBA00383C3020D5BB597A3B3CFC23B03B6EA82E3CCE27C43B7ED7F33B2B94E8BB588049BCE84915BCE34FE93BB66A39BCB83B4E3B267D423C82D7B43A0B0D8C3BCF12DFBBE1811D3CA77D24BB2B674C3C0FF89CBB7FC2753B061B373C3121063C68F7D0BB1F938A3B58E3AC3B2FF6243B3D303D3C2F354C3C71E34D3B48D83B3C7B3B50BC72E9A7BB0D8A15BC227E03BA9EFFA73B4D44B63B185B9C3B2C4F34BC2305A43B512519BCAE3F34BCAF900CBCF40429BCC877CC3B8BD4673BA5B0A33BA9A7D13BE10324BC537FC2BB955903BBD3FAD13A8EB8AEBA306B433CFF3A473C48B951BC1B82583C87C859BB4D714D3CABEA2E3C17602D3CDF31A2BA0E6A283CD4F0BE3AB885543C5E1319BB3E37D03BB16D393C8CCE19BCFF4424BC3BF34D3B7EC9633BC448A8BA14ED903B5E137438FAD8763BBB722A3C7745843B5D85AD3AC04B9DBBBAD40E3CDF404C3CA5CF0FBC62064CBC73CB2BBC9A3D4ABC2CAA403C66A87D3B5F7D21BA72700BBC7C392CBBD0FBB9BB07A401BC2A43AA3B1740E33BCE94A8BBBFF4C13BF7F3A73BAA92EC3BF43045BB340901BB6AB739BC76EF28BC9C94D3BB88A8BEB9DD21F9BB9B3B203CEF6820BC0C5C24BB1EEF95BB6664FC3B47C90E3C28280B3C73E854BAE297253C75FB4EBC678107BB2919F7BAF17A4BBC0D5E0F3C4088B2BB82F3473C9F9A31BCD58AFC3BE623543C5B3109BCE6164FBCDE77C8BB92761EBCC813373CDD880FBC96F80EBC84854D3B92798B3BCB344ABC915DAA3B695BAF3B46573D3C2C62273CC0AD973B1D98923B28BD85B9136200BC245923BB6DE92BBCCB69FEBB427C023C8E98513C29FA88BBC7523D3C54C5173C2ED60BBCB67B0E3C31A64EBC7C97D93A30C248BCAF3F493C65E999BBD7CBFF3B3523C43AB27A193C10FAFBBBCE0E22BB87B93BBC6E465BBC18CECFBB92B320BA1F696BBB761A933B24F82B3C831DFBBB32A66FBB4DE3783B664B923B57B631BCC9568C3B03BE1A3CED45C03AAAE2FC3B0B6BB7BA1BE1FDBB90D1A5BB0D6109BC1C8E2DBC93542B3C8EDA58BC3B7800BC1BAF103CA14E25BCA3B24CBC398EC03B8965063C4AF4C03B22A81E3BDD703EBC8B342DBC6572BCBB69F4F03B18542E3C54B24F3C7E244EBC0E1A2BBA50FC073CF60C3A3CC9A7533CAC52E6BABA58C43BE275543C5ED9F6BB071F883BE10A4BBC8344A1BB1C4138BC42734FBCF064FDBB911486BB6F2B293C2412C9BB75B84BBCACA9BAB5F3CF423BBEF04F3C25F26DBB68F034BBD6DB3EBC3EF82EBCBB05A3B8C04B113AA5C705BB5DDE983B9021CDBB35E1073C1C0395BBF0A1E0BBA8C106BB855E1E3CFD3D04BCB2BF3E3C7EAD533CAAD191BB7BC1D13B4788973BA7A016BCE6C83CBC2D1C473CD00A573CA82B1EBB6785DFBB8AC51B3BD6C10F3CCB7517BC449C503A57E315BB7F175BBC91B6473CB7B00EBC3FB940BC1C3C5DBC7C63C63BCB63493C153FC33BDB8D03BC25E007BC77D044BCBDAF5C3C8BBB223C5AF52CBC9F5402BA4C47FABBB8D0083CD51CBEBBB927363CB06CFCBA1E35F93B997731BB4EB79C3A57466ABB381FD13B65F115BCFAC8A53BEF8E193C1F1241BCD48313BCC9E4303CE1A00EBB93ED2EBBB83BCEBA4EE32F3C4A273EBC7693883B6B294C3CA9A921BB0AF6273C82C5C43B30319DBB97065C3C41BBA73BE45F453C5144A7BBDF4D233C4C14113B8B684A3CB8280FBC72851EBBD0713ABB4636CA3B8642633BA9A39E3B00293CBC7781B1397F21A5BB90E686BA68B341BC5CE41EBCD9F615BC53654CBC6DF28C3A9689413BCF3DB8BB1B47373C1C8C1FBB80B97CBBC919DBBA380A0C3C68B8C83B99B5773BC989C4BAEB385B3C14BDD83AF4401EBC2BE2933BC89F0A3CA535513CFC95CCBBBBD9EBB9C59A813AAA9617BB61827FBB207421BCF760EFBB1AEBBABA08120B3CB23327BCE2A6A53B43E8E2BB439E28BCF14480BB2FC7DDBB7F80463C385F59BC48DC49BBDDA7573C482FC33BFF6A0BBC2F19BEBBDA7B4B3CC328DFB958221BBBCEA3933B925D593BFC49E4BBA9A72C3B79F1C43B1DF080BB20828CBBF4E620BC4BCF963A95DF0BBC5881123CBF49F9BA719C85BAAE21133CBC7F56396BB535BC24C0153B1F83EA3B5A15C3BB62BC183C9ABE4B3CB14BFABBC642103C249807BA178F0C3A6D674BBB402C4C3C6D22833AFD114D3C0A23963B54E2463B25A438BC3D1226BC8758E5BBDC1C3EBC9386553C14053ABCBB2009BC088D5C3BE6B7223C4AA216BC0362EB3B863A94BBC64CDFBBBFB1833B769E64BA823012BBFF322A3B3505153B849B30BB950F41BC53D63B3CE5E6EFBB514F08BCABC2093B8DC8F6BBE733773BF9B1F7BBC0B113BCDEDE07BB31479F3B059022BCAACE9CBA2CF7603B86CE3ABBF025DC3B72211DBCD71A24BC37A6573CB985623A9F40443B8256A03AC3DD25BCC057463CEE39D2BB6A09B7BB06115FBBA6C0453C522026BCF34E22BCDA2442BCCE0A503914E6083CC3D07FBB30E9F3B9661DC1BBC80FAA3BE81B463C371A86BB474353BC08C10DBC1E7534BC582D38BC3220CDBBABF4E3BB40FFA6BBA1E067BB801CA03BA0D32F3CC8542F3C99CC7DBBFEAD593C391E023AAA1A3E3C42E4BEBB974CE5BB10FA04BC90A6E1BA79E63EBB028E9B3BC7312E3B6E874CBC6AF322BC61D287BB77A3153CDABC42BCFEF54B3CEE95FD3A6BE24BBC912AD9BBD43D9ABB0E3D233C9AC5BBBB12644DBC0D9FE9BB1C7E203CED3252BC01D6693BEA1248BC4EB3BF3BFB55F6BBE2CF0FBC3EB2F93BA679CD3B2E6A0BBC2A962E3C371024BC8C5C363C195F2D3CFDF9443C4A9A1BBC05F15C3C82C1123B8ADB3D3C61297DBB51221BBB9BA349BCF7AFB53A23C71A3C71CAACBBDF7111BBB4CD22BCBDFA3D3BC3E51F3BF8ACFA3B7B5E17BBC7EF27BCC16D1E3CE5912C3CB9F57BBBD005EFBB219816BC8A0F44BC9E15013C184F30BCD29A4EBCF40310BC2C5C0CBCE69D4B3C96E522BC6217003B2695C93B26AFE0BB6ADD213C5B92AC3A41B6D63BD93100BCD2F26DBBE9F2193C52410BBC6EF293BAA4FBB63BCEBDB6BB3427E33B2550A93BFB19EF3B1E9B17BC98C33BBC9438013C50A801BCF5EB23BCDF360AB98415283C504FE13B746D03BCCDD59CBA1101373C05DC3C3CD145213CDFDD1D3B39184C3B9146CA3B37561A3CA4A58CBB4B7C373B6C976E3B84619DBBBCBDA1BBF907E4BBE5159A3B90D3AF3BC463303C220F233C840C623B543002BCBB8774BBDF8958BCC22728BCD187FC3BA80290B9EA0B043A148C6DBB51843DBCD2C6A039B30A1CBA162C3B3CE3D26FBBD7C4F03A0D2426BB495A0E39C3E60F3CB0F7EC3BE9E7023C7D92943B6D4D5CBC4BE2343C9CEF7FBAEEC8C3BB271C7F3BE23C0D3B47250FBB4A39203C3574F83B902F31BCAD522BBC1954D63A01BA143CDE51D43B3CAA7D3B018117BC9369143C2894913A7255CE3BD56F0A3CDE41913BF5C28E3B008FC5BBD992A4B823C2993B6D3B55BCDA1B69BB0EF02D3C095D143B619B1FBC255041BC9C05E33AAA8792BBAB6AFF3B74BE1D3C69BED4BBD2943BBC449D9FBB79473B3CDE6142BC43B29CBBD7BF973BFBFA593C6916F2BB1187D03BAB5A1BBC49E05A3CF02BC5BBD4C11D3CDA16313C5803A0BB4A6B02BCE1DF163C7891813B86D5D5BBDF1F59BBB6BAE8BBB0E8553CCFE5593B7F8BBBBB00A741BB215EEE3A45D895BB0062C53B63F9323B69F6BE3B8B7B5DBC0B94C53AE790D63B9E64B13BB8F39ABB491D32BC55C4E93B7DC9F03BE99431BCCCE217BBABCF513CBFF3903BF504153C1B9EB53BAAAFB7BBEB44E2BBC624B93B9FE9FDBBE9DF503BC0E09F3BAE53483C28B08EBA0F9204BC07734ABCFD98E13A0D48433CAC4B803BFEA7BE3BEBE8F23BBB692B3B3BB6093B24C3D43A54323DBC63FE38BC54FE18BCA452C63B3E9E9B3BE7AE14BCF2D9163B885CA638B90B9FBBEBD207BC072931BB0D0A9C3A739F3D3C08A5A33A6C4E8ABBDC0636BA3C4A9FBBC9A873BB5D69EFBBF1FCCBBB87DF4DBCCB7283BB51D2073C1A4F913998CE1DBB6DEAB9BB181B3BBB2346083CCF904ABC2CA300BC8F4BEA3B7F1B093CEA6F333A2930B6BBC395C4BBC3080DBCF918133B8AE0BF3B3951AAB9CC21553C74D825BC3A66EEBB1A2C07BADA9F38BC717102BCF2BFD8399CDF3BBC3380253C8BCD463C919C343B5C7E193C78FE053C4080A4B98817263BD4D11ABC1744263B426B3E3C9B2352BC692304BC18E22B3C664F4ABCF5304FBC7DF4223C7FF8B0BBA83152BB430453BC3379F53BC52A273CFB2850BCEB9D4EBCF585873BB141583C100D263C526FA53B6D8C32BC2486B23BEE8005BC95695DBCBD644E3CC7F957BC708919BBB39A343CA70848BB28400B3B6DC1333C456E123CED8F9B3B12B8143A92F5033C86CD083C2487D73B0969803A04EC563C86D7D73BAA0BCBBBCA08ACBAB52FC73A3205D03B0089373B9BF144BC989E393C7741553C4F1CBB39080BAEBAE4D3513C360DEC3BE935FABB690438BCC7B99DBAC7455B3B98DF0A3C905A203C1EE89239B8C2A33BA47B0E3C07903B3CB42222BB81F00DBCAB2A083CFE928FBABB6358BCB1FF27BC1F0AF2BBEC44D13AB3E92BBB0B2DA3BBFBF436BC846F96BB390C95BBBE49FDBBF693523C11475BBCEF2128BC6E2B3A3C3FBC53BCB53C3EBAFF97833BE609AE3AEFDD343C7B155B3C2C44A3BBB1793FB855FEF3BB4BF60A3CC542D2BBA42518BCBB36CFBB497127BC135F49BB926434BC1064993B3F5403BC8FD521BCCE4426BC1DC1883ABE8B3ABC613A37BC0A542F3C7B4CC33A0FA743BCE6C434BCF3ADE7BBF637B6BBF91C203CA29B653AA19951BC1133353C003628BCB41842BC3E2933BB7870353C2D0D3ABCB04F8CBBB08B4D3CB27E0FBC5ACC353AC188553C38D503BB74D1323CE5AA4CBC5128F639D8B72B3CB5B7523BBE71B1BB0078E6BB5AB9243AB3D6553B39C2EA3BA1BC3EBC993D2EBCC7D3D6BBD2BD36BBE4A350BC7F4637BC193999BB914FA5BA8551A03BB2A595BBED04863B0ED8ACBB2388443B4D05A2BB72A8B8BB8FEBEFBB1886DEBB15CF92BB117B083C47A8033CE23BA73B2E4E9539D6371E3CD1110C3C50EEB33B0FEF26BCF3B1DCBB1FBFEFBA7F9759BC55DA523CFE7C2F3CC2FD20BCF50B3D3CC5B009390F6630BCA1F555BCA05F09BCD395053C2A224D3C7362CC3BBDB0A4BB1B2C4E3C4EF6483C6757F73AD52F37BC1AD14ABBE6CBA23BEF30CBBB7E28873BBAD9FCBB43A52F3BE577D5BBFCA91EBC6C285B3CF6C700BB3B74EFBAB8210C3C2426EABB4A7421397337003AD4BA1F3BE03993BB8DCC4ABCEFF1A83B784B9B3BEF805BBC6418ADBB107AB7BB3CA918BC21FEF23BA27FDCBB837B67BB251E38BC85A308BC6DE9EBBB87EE4D3BCD4350BADC88323CDD22D7BBA67F5A3B9DE7073C9461E13B0C6F2ABB2509423BE87E90BB295D50BBA0E8483A74D1243C88BA263C7AEA98BB6E69D7BBCCAE213C40217E3BDD57F3BBF87556BC9E8189B9B927183C4873C13A264915BB4B762E3C5B881B3B363038BC78C0B4BBC8D34C3C4C28A6BBEC59713B269204BCD9AB473C307DC2BBCD689CBB31F710BC63B506BCDD5912BC4D8A48BC34B2E0BB843701BC43A22B3C7442323BF10EB93B821C593CF7465ABC37EFF6BBD871ABBBAB7004BC62BCA03BC3FE343AABCB2ABC2F9473BA713C023CF5A40DBCD8C24C3C9B5A1FBC16E588BBEB779A3BA20A2A3B53BD053C8924B3BAEB6D563BC58E233CA595023BD9999C3BE766283CA844593C1390CCBB7DE047BC7659E73B3F2513BB7CA4EA3B8CE753BC9FBF2C3C359EBA3B9C0E453C8C69C23B11795B3BCD5CD7BB2F7887BA98FD16BC69D0383C6678D2BBCD6F53BB62A07ABB55D67DBAD92A59BBA842BD3B94B950BC2C8012BC36964F3C6C1D363C327B2EBC6BF7393CFE3FA6BB4A07583C065AC5BAAD633FBC982F8E3BAA6E07BBF7E1B83B23B4573C41707CBABAD61D3CCE8700BB2E7D313C9AFA39BC870135BCB8B839B91CC6273CFFDA27BBEA42EFB99BF12C3C672954BC458D55BB8F915C3CEC3C233CCD9A95BA5CC186395D23B0BBA0C626BA507FF33B060E1E3BA9694FBC70FF0ABC32AE57BBCEBA823BDFB1063CA081393CAE402ABAEDFB023C4082EEBB35E9053CA84B5CBCC30E6FBB327DFA3B731A363C2330A5BBEE0D513ADBFA35BC59424EBC54A5E23B371CF83B205CE53B4E0390BB237F7FBB0BF3F33B015E593BFB2A37BC4E6934BAD8E2F6BB7A7E52BC9B1E493C0772443C368F183B38E835BCFDDBBA3B94FE0A3C26F1A83A11492B3C4DE193BB127730BC367BDD3B3C5B1E3CA1D999B9C9B8DF3B2DB94A3C4A40F23B3FCF3A3C8BEBD73A02467DBBBF563F3C67201CBC0DDA13BCF9D8353CDCE8453C3C8EC13B81BDD2BB7EC2BBBB0E685D3B392C00BCC478123CCDB814BB4A4A37BCEC82B2BB68EECCBB7A21C3BB3AB6FD3B0A71FCBBF6F4A9BBD1A4E2BB739E70BB6324F43BA4A2153BB5E460BA4DBD08BC72319CBBF14D15BC9D643FBCC695893BD9D7703B3E74013BDADF96BB71AA1CBC6E3F533CE50FBEBB515779392DBD57BC6647A83B6DB815BCA85378BB7BCB3BBC4880133AF691413C590584BBE32D29BCD2A3913BEAF101BCA6CF5EB9753B143B805ADCBAD42C89BAD1A5BCBB99504DBCD5D0FCBB333F3CBCCE4E2BBC87C608BCEE9C283BF436ADBB873234BC8220223CBD3742BCF1FDEF3B0DCEB8BB8B3D1DBCC709923B362AC23A4C764B3B3A1C4DBC35DD56BCD000473C123626BCED994F3B0917C83B448488BB89325EBB1381A33B13B3CC3B341E21BA052751B98FAE9BB95C9A543CFE746BBB7BC41EBC18DBD5BB42AC1FBC7E059FBBFA327D3BC33F8F3B7AE36EBBD64488BBA0BB2EBC04FA1D3A6A5A2EBBD47B233A09A0F63B5EF903BCC8D6893B534E323C642BD93A7FBDCE3B3B6E143BCC1746BBEA6817BC0E1CEABAFE734B3C9A1F4C3BCFEF86BA689F8C3B59CDD23BB61A193CBCEF173C0C065C3CF9EFB4BB1A8497BBA88A443CE807E2BB1032D0BABEE2CC3B46AF363B6395233C952C71BBE61451BC98D0C43B572C31BCD7E1A33BFB75433B96410ABC766A9FBBEC0A48BA11CF1E3B75FBBC3AE90F2ABC18936EBBDCB7203C0E1A043BF9D445BCCE40273C4CA60BBC59CAEC3BE8F4313C999E983A9530253C39EC403C497D73BBDAC6A73BF536ABBB852804BBDA7731BC7FBA473CB18CDDBBDB7EB23A3E7F9BBA4043E43B49202CBCA28B5CBC21B74CBCBDB43F3CF9BA6E3BE20C7BBB5C7B123CB72E353CCB6B5DBC734C1A3CA07A3B3C10549DBB567FD13B4BED34BC7319103CFDB822BCD61612BC14B23C3C8FEDD63A8E05303C76CCB4BBD73DF43B89321FBC5294CCBB830C0E3C66EC03BCE0A94D3C8D04A63A4964D1BADF5FBE3B013A073C7692093BE2C30B3C165A5B3CFBAB803B96DF003C82C62C3C0502F5BB02FB4A3C1A651FBC495AFDBBA84A283CE9F0653BC81861BB1FBC0ABCCA6BE83BDFEFC83BC81C21BCABB51DBB9BA056BCDA00243B2AF0D9BBA526333CA7272DBA821F3A3CE7E1CDBB75B3A4BB4DC449BC808D6A3BB2363BBAE3D413BC479624BC88661DBC6B1905BB37A49D3BB6093D3C8D898A3A0A1B3B3BD5C8AC3B31B9143C9A07C5BB9945ABBB74CE89BA213293BB8A14C53B2FA338BB2ECE733B3978DDBAB73E383B349D0EBB9242743B6AB5013C8B3D243CD8ED95BB7FE8F6BA7B5143BB1F87053CF74EAB3B9B2AB2B853841FBAD58F513C92DA07BC9E0C51BC09F54A3C0354743BCE81AF3BD944D6BBD4E3ADBBFF5A1FBCFEC80F3CF64C973AB773A6BB12D1F5BB5D1210BBC0C0C6BBF050793BAD641ABCA4B7033CA3D894BB9386A63B9C422C3C89684B3C4DE9D53B522ACDB9162BF7BB612086BB1CAE86BBC84DF33B21A530BCF08B083C3B0E06BC7F0905BC4D409D3B37762B3CC4355DBAC5CBAB3BAAEFE53A251889BB507C4ABB0611273C9F99393C8043A2B9DBD34CBB6EF2083A0CAF053C6E53493CE2B6243C9B66EF39A88D0DBC7E7C79BB6AC6C5BB740091BB01CC33BC2438703B6AA93CBC499D9939D95EEDBB57E4E3BAE431463CEDBB0BBC390BDE3B51E9353CA196AB3BD0FD3ABA9C26ED39A0B6EB3B3E42D33A67DBFE3B67B921BCEE874C3C23A32B3C776051BC07F52B3B5192C4BB8307713A6E14EABBFA76A13B103445BB60254B3B387ED639864F283C30EB15BC34D90F3CC09E333C3914AF3B7AAF5C3B100F593CB3C96B3B3A7B30BCC62F7C3BF118BCBA8877A33B1422303C1C7B503C733213BC48E5423C73BA383C18D44B3C5A045C3CE9680E3BDB6181BB11E23E3BDC92273BE5F9233CF199113CEA6A0E3BD696433C8952B63B219FF6BB904C683BF4EE78BB577D50BC6D0584B710BB9ABA56BD013CB35635BCE2771ABCDDDA55BCF038E23A4A3FE4BA02D0C9BABF69DEBB2980743AEFFF35BC29D0273C487C24BCC067A8BAE2F7D9BBF9B76E3B0DDBA33BB8F5F4BA8056A7BB58AE703B663A253BA243053CE00690BA96E092BBB16335BB3227F5BAE90A043CCFFA09BCB0E933BA63E0C23A4FE5FFBB8F2E09B9ED12C839D0023ABC41331EBCB01FC83BE270443BB7EB42BC8249CC3B4666433A7704063CF5CF02BC97CBEDBB6E8C2EB93B5E74BB98B43ABC40B403BC7CE47E3ADF51BA3B715456BCC5F0173C97796B3A21014F3CCA6AF43BFB43FFBA4254983BFDE23CBB0269E63AEB964ABBF2665FBAD249FFB9C9F5223CC40AC23BA908CE3B7968883B353EF4BB114E333BD004FABB087E3EBA7607E1BB4579E5BBE866563CEC51423CCADD2CBCD08B12BB6A7686BAAF313F3CD0D839BB694E60BB634EC13B45B8373C37D20F3CE4F4DDBBB1C418BC32225CBC48825DBBCB1BD4BBDFBF0BBC8EFEC6BBC2DEA2BB4A79553BEA8D30BA595C6ABBBBB8293CCF12363C2C1AFABBDA2A06BC51B2473C064B283CB166DB3B71CE273C0762DDBB4403CFBB97ECD1BB8EBA7ABB28E8C3BB5475D43A9F7A023C944C813ABCB845BB6CC6A3BB12A68E3B12F5143C2C2AB6BB91A92CBCA596583CD9174E3C1031263CC646183C08B4F4BB1E75753BC32FC83B590E38BBA64F39BCE84DBDBB320E97BB60BE58BCD2C8D03A29ED36BC9D08D33B84F4B6BBC76A5B3C54D3273C8A8DD4BBF736553CB4C77FBADFE385BA34A85ABCEEA49FBA0FD92EBCEF1E88BB6C11083C60A20A3CF27E023C0E3383BB1044A4BA8B0930BC321A7C3B5DF6DF3BCFEA55BC8A9E52BC4FE9F53B645442BB5E3CA9BB3448B9BBBF2B50BC371806B9712FC4BB2D8645BCF7D0F13BF44942B97EB82BBA2B4983BB684D163C95A2A7BB32911DBB1F4F173CB9CE10BCC28337BA13BA4E3CA2ABA13BF39CA1B9A730373CB0D808BA421D4CBCEC8BF6BA5EAB35BBD0732F3BB3D21D3C87790D3B20F9E9BB2336033BF6E655BC6A8B50BC1E89A3BB8333123B5268F13BCAE50F3CC0C22C39ADBD8D3B193BF1BBCD88433CFA663DBC091D62BB2F78EA3BD4EA43BC433423BC152B2F3C583ECCB95747343CE27A95BBF3C65CBC726076BB1259A4BB20AD233CC32F5FBB54EAE13B680806BC79A28E3A3777003C6312ECBBAA151A3C6A5344BC4489A2BB27AA593CE93F34BCDB603F3CC449283B9FF18439E92E1BBC6CD181BB5526B63B487E51BC7D1F38BC2C0ECF384F574F3B0D1C22BC5468313C869B033C9B6F193C15A1083C20AB463CF38BD03BE1E358BC4A702CBBAF23A73AB314793BA81E9839DCB3513C5912203B33CB2CBC82822DBCCBC8DD3B66CAEC3B031546BBFA6F1A3CAFB73FBB3E953CBC4E52853A9D60063C9B69A3BB8625E6B9FB67B1BB8CB85BBA458C3B3B1B03B13B93E54A3C8F29943B1AD3EFBBAE96B8BB2279C33B00ED0E3CD9BB73BBD33B13BA7898D93B72849E38C29F383C1E69F03BEECA5F3B109A3D3C375B753BCA543B3C577D18BB59CFA23B49AD49BCE48551BCD53CD63B4502233BD3DAFA3B2EC7443C77C4463C97D630BA4E394EBCEF2E803BD5BDF6BA20231FBCF250BDBA01260D3CE43B46BC9F59153C2ED1C13B479E60BB47759E3B8837123CFB3153BCF8653E3BAF65063CE116193C2664F8BB9A4F423C9A511EBCC35B0BBCADDDEFBAE899FA3B6DD81A3A24F2233B4B04CF3BC115D4BB2FF642BC655858BC22503FBC9AD7093C5FF951BC7DB2A03853037C3B70ABCB3B850FFB3B2383F43A1FF746BCA3AF183C6D544C3C123F113BAF40BCBBCA19573CDD7358BCED8733BBC3C5373C9DFD2ABAD1D91D3C40E0F4BA7DD9D3BA0F1A203C9C8F13BB219C863BD50913BCEE622EBB8F07393C2A3C37BBD4E3D33B8CE0F6BAB335C43BC121A33BB13AB4BB8F33D63BFDDF34BC61F60D3C7B27183CB59B033C555EA23B7EA22FBC484AD8BAE0FA09BBB154703B38AF04BC0858F03BE6BE503B2A7E253C37B32D3C8E8852BC0462283BF034303BE9732C3B8238BABB183B9D3B7644E9BAE854313A5EA233BCB3EE0DBC4DBC4C3C94A6873A3816DBB966061EBB9073103A1B325BBC2BB841BA864F533C48DFEF3B51D3B238E3620A3BC28E083C64D6C8BB07C700BC798600BCFB8C1EBCE0FB97BBC27851BC37E9CDBBDDC4283A7450CFBB6A4D4DBC35DB2A3C1D087A3BFB11BCBBC2D40BBC6DDD8F3BD0E45CBCEF1CF6BB23371ABCCB02263C5D1544BA631A0B3B42D8453B5D85D2BBE275883B9E38163C6C8C4F3CC9375ABC28D462BBDA5C1CBCF313003C02D2803BFDD492BBF1579E3AB83A8EBBF87890BA89F799BB161D14BC66DA1CBB4605F9BBA3A08CBB7C8120BC0737353B0BCA2CBCDF124EBC280B933A77CD20BC3EDB033CF5A2513B58B27FBB0F142DBC7B4032BC2539DE3B19C2283CE18234BB5EDFAFBBCDA9203C5C58BBBB8B8912BCADEE413B5467F53ACE7E943B21B25A3CA095943B1FE680BB572340BC44740E3CE4C47F38C2FA43BA88D6363CDE4D8ABBE5C19539C1A62D3BDE76103CAF573ABC81A4FDBBECAD27BCEFD4A03AF8FD7DBB2E71783B6D4D1C3CA76805BC981ADFBBE7C43EBC09F2303B405506BC9E4358BCE39208BC61063C3C5266283C483284BB45A9D13B0E41F8BAC3817D3B98263CBB83BF283C15C3993A57092A3CD210F83A6AF43BBC3B5740BCA9AE39BBA5878A3BDF1DD93B993219BCAAE2BD3B0C417E3B6AD7BEBA8E1D1ABC2C7A313CA95AC3BBBF4538BBCC86DF3A81C2AEB9FA9A343C9391E73B3089E1BB3BC33ABCF064273C08FB28BCF28138BC34E713BCD79CE4BAF5E458BBF72D1FBCC83ED339B44B4E3C2E98F8BB9822093C5E65243C625E05BC6B04FC3BD4F74D3C9A868CBA8A3C873A1C1F4B3C5CE1833A5B33FDBA30BF0C3C7D9AD73B9A3B2A3CA6D752BC4E42463C18A9EBBB03C390BB383481BBFAB4F63BFEFF5ABBC490A73B1F3A123CB8DC4D3C40BCABBBC7DCF33BD366923BE7D98BBB2AFB75BBFA5260BB7E0A48BA3FB343BB22AE87BB4C5B28BCA2B9E3BBF1B728BC492BB1BB1077C5BB1B0748BCBABA2EBC6BDB223B60D1EDBACE46DB3B9676ED3B2ECB31BC815CE5BBF8F20ABCEA9E57BC14125C3CA6622ABC0AB64ABCB88A75BB1AB4033CB79B283B9AEA013CBDAA543CA3A848BC5D9C67BB2BF306BCE6EAB9B98F7740BC8BDC463B7889A2BBF7D10D3B379F28BC6F8612BCE750E73B4577573CF79B32BCCB0209BC9D273DBC1FF593BB862A683BBC8A0EBC7B75E83BC2914E3CD39C19BBDCF5BDBB5F0845BAB269343C153131BB0A3342BC79AF05BCC71AA6BA434AEA3B3FDD07BBAA26A33BE8780DBBCC94243CF311213CC62DC73B1D3E333C1125D73B9F84C23B502347BCFF5C3A3A2D1C3E3C516C3DBC617022BC7525063CC65BF03A86FDD63B7AC221BA82D698BB28C947BCD94C7FBB8CAD7CBB8404163A9DDD38BA77721F3C0666023CBAD2D4BBC11F4ABC6DF7E33A81DD0C3C83FB3CBAB2E5C53B3E484A3C493B90BBAA40D13B3F4557BC14CCA03BFC702ABCB5EFBD3B1432903A05670D3CA2B027BCA3C927393A551CBC318C173CD03C4FBBA55F473B865807BC7F0A5C3BAB0FD3BB561BD53A94AFED3BACB6C0BB0D66E03B7CF11F3CD4821E3CFA0BBBBAB76F713BFD152D3CBB1EA1BB36F0953B49D5383C9F621FBC5226A83A3CA901BC71BE5A3C3FACC339457CFFBAF1232C3C676B3CBC7BE8883B60948D3931C003BC15F8D0393D6A453C1DD6023CBF53FBBBF4F92B3C985C36BB3342053CB7C873BB88915B3C2B80BC3A756FD6BAC666183C0303FC3B04D684BB2F0034BC17011CBCD7D2C4BB6AD2CA3BDDC2403BF77788BB736E313CD686ACBA2032FC3A23BD0FBC140B1DBCD42F3CBC9FA73B3CF564553B780A90BB2FBFC2374953D63A95A44DBB78622E3B171BB23A61593ABCB05C2A3C7F32393CD532D4BBECBE16BCFEB59CBBAF9D243CACF66E3BE0DC243B9786AF3BE0B1163AE5D2213C4254173C7BC713BC46A599BB22C90B3C88612E3C553588BB0987BCBA7E83003C59A1573C3EF5DFBB7B65B3BA9D50513C46C9A73B9E1D2CBC01CF41BC9740E23B29661DBC985F45BB1912B1BBBE2454BC00AB4A3C897FDFBB556B9BBBDE32323CB564E7BB4CBA0CBCD6C442BB7993553C73191ABC3B3A4FBC039BE43B4376933BBB78D83A63E4E8BB3276453C10D9403C68D9133C034C193C6D9B07BCC1B901BC78EC3DBC0C6B0F3C2EB182BB25D9A439351D2ABBA2803C3C9195D8BBB6A3283CB315E1BBAB6DDC3B2DAD92BB293605BB7747363C17999B3B76C0F0BB5AA55B3B13AD63B920DF4CBC29372BBCA22AB43AFC3820BC5E78A5BB15B846BCD5D6E6BA6B63D1BBBE4B0ABBE9DC2B3BD760823B880B56BBCFCE313C33F2473CB0D71DBCEE5549BC2A766E3BE714D4BBEE8C543C0AC0523C12691F3B6F7951BCDD612DBBB53624395F85203C9188D1BB0B4138BB613B123C6FF44E3C90B50E3B58D3D93BAB800CBCEE32383C81B9C6397C6E7DBBF9720C3AD65729BA1DC5963BC6C3103CBA9EDB3B00FAEA3BD90DB93A43F6013B81547B3B9B2625BCF2FC2DBC2D34843BA101B6BBEDFE273B838F3BBC370C273C35D0993BA40FD63A04DC453BB4963DBC9B2F9E3B79A985397A071CBCA662F7BA057A2EBB392104BC51F4073CEF1705BC8F5C63BB6D692D3C2838943B9781EC3BE98D1B3C3C41293A2FF9F03A00121EBBA940BABA8098E2BB5AB5B9BB67A4E8BB4DC208BBDBC85BBCF1C2AA3ACC083F3CE7752DBC5173B8BBC38201BB8E9508BC59214CBC953E513CC9B9473C0E209F3B930D1B3CC8E128BC4FCA24BC1FE3563CD1D202BCD8F50DBBD6C61E3CDDA154BC3CF133BC0E0D143C86C235BC7A3B41BA3B6C163BF46F503CA763473C63A6393BBF670BBC00B661BB2C7548BC83D60A3C2D221C3CDACBDBBB0A63123CDFC338BB71E405BB3BA9423A5AA09BBB6B6F2FBC6F1FF7BBB202A93BD51B33BCBCC48A3B47F4563C560A1D3B042709BB168FCF39E334D33A183027BC34A4473C719C1FBBC750773B9ACF3D3C1BE0C0BB567ECE3A1BCF0F3C4A0CE2BB994A0F3C3B78FD3BEA4F29BBA8C66ABB1C6C3BBCD55538BBDEF18D3B1F2EC1BAAFFA0B3BBB5298BA66F424BAAC3B3ABC457C35BCFEC53BBA6BB12EBA7C69553CF771513AB659DEBB33CB453C9FAE52BA21C9D4BB037E1EBB942EA93AE60205BBA8D6FF3B0DDE01BC791717BC63323A3B3630AD3BF7DC9C3B36C111BCD69A063C9727903AC3C0D43B1B4D21BC8A4E323CE19FBE3B97211A3CD47F18BCCFD93DBC7B032BBB15FE27BCFF04073C576A51BBF733FCBABE2AFCBB324A31BC95361ABB5263423C26B9FABB9A784ABC0CD2993B485991BB579F243CD4514F3CA3C1A33B7400F5BBF125B43B615C75BBBB29A43BA858593CEAFA20BCF9B7563C9B1F8BB9991CC4BBAE6DC4BB8A60B83AAD1C6CBA83A5F4BB10EA39BB0AC3143CC9ABDBBBD6F4403C2C1489BAB5AC2E3C7768C13A6A0A42BC034D703BF93BDCBBF7FD283B469BD5BA3F37063C816303BB09A8593CDFC7403CEE60C73B418A083BA76B57BC0F71EABB893A42BC6C1BB7BB4B3107BCE47F293C8EDC42BCBD0CAC3A9579113C483E6EBB54F1383C9D78D2BB693B813B03A104BCE7CA133BAB0CA03B3E90A23B2B3087BB31C4E43B4A459CBB8725423CB9C9173CFD73AEB955D88E3BB8F60B3CBA5122BC97FC0CBB864F46BC1DBE523B3DCC53BAB23E02BB712E243C613FF8BADB8D31BCD8C63ABB37F7F93AE8FE27BC47202CBCDE180BBCB266F33BF0EDBEBB3878FB3B63B8663BEA98373C9110503C1E4FC3BBA1E0483C89E1E6BBD6D408BCEF59153C820CA13B006920BC9743E2BAB7F96D3BCFEA04BC178731BB66EB52BB22480C3CFB8ECCBBF02E9439A05250BCD0E4BB3B5FA4E03BDA150ABC782645BCBAB10ABAE7907D3BA975E4BBFBF54A3CC3D6013CDF0753BC653DF5BB984408BCCDC1893A3AD9B1BB25A1CF3A47BB16BCD2C31D3C9D1580BB02465ABC35E5C5BA7EDA28BA9E91F0BB74305E3BAE820EBCB6304A3C7BC72CBB0BB4DF3B7D6C0DBC64585CBA1D54E0B821499C3B45DD0A3C683AB73B5A53A63B806142BC2DDC4E3C0FA839BC24A3563CADCD30BC82B5A63B016B323C2F77CFBA3BBA553B042F053C239BCBBB6167193C4AB1E63B9EF1A23AE3D01E3CE9FE5CBB6CAB833B071BA0BABDC650BB4693F83BA36B1FBBAC45123C5996CE3B682798BBF86FA839BE22243C7E824BBC1D2E46BC18033CBB3D8F383C11F1483CA28013BB85630D3B0E4754BC33493FBCE3EFECBB527992BA9F3DD03BC8EE293C36AF0ABCEBBA2FBC913ADEBB385E5B3BADE3E4BBB76C953B71B53D3CF3224BBCFA69D1BB04CBA83BB06187BA1647033C8C4869BBA53FCA3BBC0419BC948340BC5D350ABC762C48BCD331C0BBE7AD17BCA4A880BB0676B43B44DD9BBB2840CCBBBC307BBBB41B0DBCC3C596BBDF4E4F3B186DFC3B1B5E2CBC4C16F63B3200103C822442BC3FC2983BB81931BC454CC8BB3DBF423B4DD0E63B683D92BBE39342BC041D74BB7252013CFDFAAC3BE3CC873B997DD83B3A91B23BF5BD02BCE1D540BCF06FD1BB11B4043C786D9A3BA9CF08BB3026703B97142FBB3C78A23BE9962DBC0BFB573C6A6DBF3BEF12743A574E35BC107A43B7078A2C3C96460C3C5C10203CE5B2D1BB5B5B57BB0D36143B86511CBC69EB3C3C21CC3DB979E5583C5BBF083CB9C742BC5710C03A1203EDBB68E638BC05EBF9BBB9E0433B6AEA30BC22F40E3C71EEF6BA1FFCC6BB7D1775BB2F3E3E3C513E713BC7403DBBA64AB03934FD1FBC90ED2DBB7DA4BEBB3F66173CAE5B51BC8195863AD0597EBBD18758BCA64A8ABBC345153CD9544FBB43263E3C7545B1BB39A3E13B66322C3CE09A9DBBCE402A3C70B7503B04370E3CA06F0DBCF077473C0BB9F9BBA8CB3C3B7FBAF3BBC1CF94BBB526323C9826563B7E4C4FBC2A60B53B840ED63B59CB40BC70C5423C5C5CA03B2F5FE2BB1DE433BCD26B56BC0D0B41BC468FDCBAC1356B3B0133433C3B2918BB007EFFBA5D71713B2DE9FFBAB145253CC920DE3BC7EE95BA69D235BBCE1447BC8F7F1EBC2346013CC97A46BC5B12443C4B9C29BCC38198BB80F45B3C2F5F28BC3B72FABA0E6F0ABC160BA33B99452CBBC1C52ABBD892E9BB9CFFD4BB2B48F43B8328013ADEA85BBAE6DF35BCA081583B9E10153C75E43BBCCF960D3B33E62A3C9B50D83A2CCD2D3BB80D7DB9D700143C79B3C7BBA37C2D3C13A8A5BB76CF3D3C321A143CB0824A3C40E7763B5A3267BBC9D7213BF13801BCC61D2B3CEB6C56BCAC92993B30E506BC11C1D93A63BE1C3C99EE81BB64B560BB4496A7BB6297AD3B973F8CBB91BCFD3B6A3823BC8E88683AA0ED1A38EA8CFBBB770086BBB18A00BC3294D0BB193C08BC1DF330BC12BD8ABBC6118DBB361AEEBBF4D0BFBB35C595BB4CEB40BC46173C3CFCA0CF3A307BE6BB809128BCC5CCF73B704B0CBC75A9F9BB07461B3CAC3D953B3FEBCA3AB439123C9A62FEBA79B95A3C826010BCA01884BBFF6CA63B03A5423A743555BB7120CA3BF3B2DD3B485B763B831400BC4638253CDDFE2ABCC9078B3B7377103C1FFF6D3B01F70DBB52B831BBCF830CBCFE58C9BA58990EBC0B60C03A45E8BF3B4744543C624FDEB94C5E16BC64BD593BBA3407BC5BA898BB8580973BECA3FEBAE7B0283C10A04C3CA9639FBBEE053B3C04B5013C1E8F243BBA744C3CD153C63BBE228BBA6404273C4CBE4F3C02FFF23B1F8B13BCA2DBB13B671C493CAD705CBC8005A63B9786563C740FD5BBCF072D3C278A36B8C1FA9739C7444B3C68D669BB2E428F3B69174C3A572A503CD529DC3B2443423A549A783BA997A6BB6BE64D3B307813BC38BC20BA2E0A0E3C1CA68D3BD620293CB201853B9A60CA3B412406BC1E52913BF2D888BB57F259BC0AC33F3BF22D253C0CAB453CD848843BD1B040BCA3B609BC623CE43B0BE0933B2FD048BC828DFDBB8C1030BC3BD0833B25AB29BC861312BCC97017BC24FF0ABC571E4C3C5B6282BB6D2E53BCA5D343BC2B266A3BBB715B3CA54C29BC5AF6233C7DF0B4B939BC9D3B530EC03B471BE4BB2E5DB3BBD3D392BB6FD92E3CDF53A03B77F239BC9ADF413C21EEECBB3C7A97BBF519013CEB11573C0D0D6ABB53B808BB3ABE4D3CB822BABBF7CCEF3B64D5ADBAEF0617BB50AA10BCDCD564BBE52949BCAB38573A662C263CE16A133CD25F14BA58AB813BA6C7903B00F04E3CDCD511BC9332ED3B0A32FF3B461398BB47CE24BCD0C365BBA7FE0A3C598E2CBC3E31423BE1E2B03BAEF6083C4C2BBE391F54723BE21BCE3BC1EC6A3B591043BB704E3E3C1EBD413BA78370BB4E3AFB3A2BC21F3C7664AABBC88C473C6CEF8D3BBE078138D958A03BD337493CA922EFBBBDF6B0BB441CA3BB95A4E739DFB2CC3A8F80D53A40B31CBC428FF93B4F835CBCDEA4583C3CFC37BCFF66313BA0F85BBBA28E89BB33A821BA2DFFEB3BBBE662BA19E98A3ACB54423B265A8FBB657D2C3CBA0BF63BEFBE1C3CB737933B8E8B323C234BBB3B2C841A3CBFFBF4BB148615BCCB50AAB9E47C4FBB1A0354BC93C74D3C644E24BA5DE526BB34EF213C8069B93A3FC24ABC031C8A3BB91115BCB951ACBB82A4453CFD13B43B0326BDB9DFAC2A3C999D2E3C91495BBC69DDC23B546986394B4A41BCBA67443C263C5DBC98A0E63B660E53BCA7521C3C68C4513CB09F1D3B9CC34A3B2D3FEBBB7073273C3CDB51BC47A05ABC00AA0B3C7E305FBBBE414D3C9FB5B03BEE2E173CF4C1143C227E55BC0E1491BA24D253BCC0DA1C3B12FA443CA0F8F5BB6895623B0F6C173C5EF1CCBBA21CAF3B086D753B3314BB3A6716ADBB8DDDD83BFDF1DB3B39AB4B3C9E9066BBE4A5CE3B15F5D1BB60BB333C46670CBC0E400BBCC7C1073CC5B194BB0B27ECBB3427E0BB18A20EB9A9BA97BB6328C33BA095533BA57048BCF4B6343647C63B3CBD697E3A1AF613BC5FAF07BC0C62BDBB354468BA6D18453CD8F33DBCA839FBB94EF7CAB84CA03ABC96D00DBBE95308BCFACEC1BBBCE547BC7F97E7BAB4D433BC7D154DBCD0142DBC76A2FE3B4C93163CE0B2293CB7D8FBBB39F9A7BB0F43423C7619313C78E30E3B128930BCDE59B43BE850293C0817F03B874E2CBCA146A63A07FCBA3B39A3FB3BEE66E1BB9BD2B93B42FF15BC9AC7153CB6A1BA3BB1C223BB6BEC43BC47A5FBBB62F6323C3707E6BB9A7995BA0B8F0BBCF90CA8BB81D92FBC4C933D3B389F993BD271353C620A2E3B10275B3C89A0083B65A77D3AE038C4BB21D639BC9DF80EB77530023CE2179B3B889FE1BADC7E543CE32AB5B83F64D0BB44B44BBC4D19FE3BA970393CA55A59BC0839D83B6D0C3FBC6F1DDF3BB3FFB23B9CFF463B8EB0863B930D2EBAFA67753BB78A01BCA66A273C9B79CFBB8832303BBB2F37BC2A7A17BCBF80F2BB60C4373C6ED1023C7E5F1ABC2D86AB3B180C9BBB39C7DFBBBC47053BF798503C958CAC3B1F63C6BB713A27BC6D432DBC88C216BC423BABBB6194173CE83A2BBB1D48513BEBF8B93BB63F55BCA9351CBC9D7544BA361CA63B252E5B3CEC7523BC37D32C3BB00D093C6318A33B7A5F15BCCA611ABA0EBD2F3B13B8F43AACEB57BCFEF6D93BC69949BC56C283BBD1F299BB592A72BB304F57BB7E5D033C9ADF35BACBEB373C16E4533CC99A0B3CDBE1153BCBE89FBB6F2C7DB9541A33BC9EDAFEBB1C4458BCC459AD3B16AF4E3CF35D9B3BAA8702BCC9F618BCDA6E35BC0878553CCC86B63B827DD43B09D605BC24AD453CC9A8C13BABD1BF3ACFE33EBC6F8026B92E2814BC18013CBC7150C1BB828B4BBCCC131CBC94413A3B8CC206BBD4741A3C17BB7E3BDEED02BCC7D2EF3B564F7D3BDE7C25BC777F233C5A5130B9B14F7BBBC71C653B84B9BABBE4D0AD3B1F0E42BB4F1FFBBB38465E3BE80F35BCB6734ABCFE79B9BBA9EDE8BBFAD68F3BB70E693B738299BB2E74F83B65BCBABBFDCB83BB86A81B3C9C1E94BB933F3D3C77D1E33B398914BC691212BC09457F3B497DF13B4EE249BCED44283B4AD4813BCF24E3BB54F2F03BDB562A3C02C0573CEDD20DBC3C3918BBDE152D3C656CAC3B08C8383C2ACE15BC1C2F57BCE4BCA63BED192ABC1B315ABC64B857BCF55A2C3B08FDC2BBAE8E09BC369B4FBC7D9514BC07D2583C5748BBBB0764DFBAB10035BCA8FC3ABC98E418BB9CF8DEBB74898D3B344702BCF988443B6EA068BB286B9C3B1EFD80BBEEB1B1BB5AA53ABC2C9412BCF430B83A43A58BBB3A46A5BB81EE333C3528BA3B7176303CF097EA3B8475A2BADF2FA03B0F4C9EBB13382BBC4339BD3976A18D3B8B5AE43A322BD2BB216AE53B223F45BC2BE432BC717F1F3CBEF9283CFFFF583C61B4F93A4CB5F8BBFC8C963BDD280D3C5D4E20BC6E64A1BB798C20BC08FD4E3C9F6C5BBCFB00AA3AF231E8BBE04F903B22465CBCF5531DBC819231BC529602BBFB580E3C49C3F03B2D8255BC0D200A3CE76E2D3C8C41B3BBE89B4ABCC97617BCAE3D67BB15546FBB606D72BA50A817BC3221143C3051F33BB382D3BBF72F073C26492FBB137417BC9E352CBA950A273C5EBCFBBBA8EC483B301018BCB65A07BAD7B7893BC4F1343C1FBC10BC98896B3B47FF1B3C9F40F63B86722E3CB3CC9FBB711246BC7D6643BB9C4415BB912E2F3C56D154BB1D30FABBEF55F03B760C063CC8695CBC5D994B3BF58B54BB8AD0AD3BA431233C1A73853BDE30BCBBDAC5713A5AAF3A3CF69CF1BBF02C213C2046EB3BFBFA1F3C1A11C73933686D3B58E2913BB91B983BCDE7953BB7060EBCC6140FBC4AED2A3CADF72B3C462532BC5C50CFBA6DCC163BAA0F2EBC2273FF3AB1851BBC64DE4F3C6D60CB3B6B834FBCCE9CF6BB0B1A043C2727513CB4C51BBAD0C1573C9DEFA3BB0CB4023C9CA4B5BB824F4A3C7B6EC03A7B3D43BC026C9ABA393A97BBB024973B2079AF3BBC5051BB222624BB830C56BCBE90A33B965213BB980E49BC8B4760BB586B043C807E343ACCD325BCD75BE6BBC38E3ABC40895CBC9D5F24BB6CA70E3C620B233B673F3B3BA505C1BBB177E33BCF1213BCBCF707BC0966EEBB6428B03B8D8C5CBCF2B5883B1B88AEBA1F38C2BB45F4DD3BB509023CF78420BCD5EA3A3C85EDAFBBBF51FABBE72C8EBB47AECCBB9F62063A32CEE43B7BC51BBC0704E4B90EF4F33A43E807BC98E8593C366B0C3B5C7E6ABA7C7FF63B9FF1B6BB02661A3CD12C6CBB8939303B02D1E13A124720BCF42D0BBC463CA8BB06C64FB9C003C5BBB441213B5EB6393B49A681B923D69FBAAFF0463BE7D317BC42A9FFBB81F95C3C8C7E173C8DC0413B025BA1BB4A439CBB183E503CB5C32EBC1510D9BAB873AEBAC8233EBCF0BE193C83DA303BAA630C3CC7B703BCD50E26BC1325743B3624F2BB37519A3BDCB2333CF9613FBCD164E4BA62DA1CBC139A363C69E3403CAFC21ABC6D57423C6723813B6A9EF7BB7299173B180A4CBC32DA35BAB0BCFE3BC30B2FBCB78D15BB38F034BC1D7D5C3C23410B3C6BFA86BBBC144ABC2AB314BC320BF73B554213BC0FEB093C9E77F4BBF2DDFA3B947722BC49662CBAB79E333C35C83C3C79BCCBBBBCD5A8BAD3BB09BC4E7AEB3B9C8040BCDAA0583B8B899D3AD05C8D3B711C003C39CC3E3AF9A6033CE39A1EBB1FABB8BBA5B9253C02D16E3BA18E70BBF4E578BB854A16BC30335A3B18A7513BC53B4ABC8D56C2BA3F03553C5E0559BC472F5F3BBE1AD4BB46EDD63BB29EDF3B14F3D13B97A0DFBAEE2B293CDF943D3C92F219BC9C30F13BE3AC2BBC5361203C2E2469BB5423E8BB2B54EBBB7FCF273C62B5363CD1826EBBAC0109BCAE4237BC3D921ABCDC9E5C3C206428BBECB607BC963F82BB4F0A82BBE06932BA16EBE13B48F2EA3B49DF23BCEEB7B0BA2F2AB73B1706B6BB72D9A33BA224EF3990110F3CEEDFC0BBA4A4D53BA16726BC9586163C0A0B65BAE38F33BCD3A810BC4208993BB0A1CEBBD068873B04AFC4BBD24DDBBB8B79CABBCD6D873B628800BC0DEF45BAFA69913BD0E6FA39AAB2693B857740BC8DC39EBBC6A32D3C8AA0CFBBF9B9B0BBA2C50ABCC341A83B29DA1CBCA1092C3CA217393C3C313CBC2EB583B95E6843BC38CF903B37D3F83A47EE4C3CFB77193C36F51E3CB2F1FD372AFB55BCC49E3DBC8CF1123C3A6A16BB356E58BCB4D000BC66E251BCD17E61BA4F67C6B8E085EDBB815AFBBBCECD7CBBBDE0093CCB4D49BCF55C17BCBEF4ADBBE570353CF9B7FC3BEC4DA2BBB91DB2BB317E06BC1B6540BCA8B2993BE89C993AB00FE93A01675A3CC3289F3B82D26F3B183A9EBAD47821BB52BA65BB3FEAA3BB6A2D51BCAB6E41BC2F291DBBE276543CF8A6D43B82A2C7BB9DE13F3C62A089BB9CFE143B6F8F123A39FCD9BAA89229BCCFBA06BC5F4DF6BB554F0A3CC3A0623B0DEF1EBB5219D33B357458BCEE7D773BA655B3BBD3B6E2BBFCC5163C7DD09EBB3BD61ABC4EFF54BC1DF600BAAC9943BB74EA88BBCEE3503C73B644BB81F74DBBC0E758BC91641BBC4910DABAEDC5ADBB7C17933AC6DAB8BBDE10E53BF3074E3CA26D303C7BCA093CEBCB44BB241B023B581D0F3C45F7A03B04AF51BC8F48133BD0F5D03ACD3ACEBA9DEE49BCA65B66BB20A0973945CE45BC7A26A1BA6119903B515138BCDF9484BB306454BAEFB9AFBB446A33BB57CCC03BA1E6463B496E15BC6AB0253C08C73D3CF56BA4BB69020BBCC7015D3C0C0DC73A697A963BED96DBBB2BF3623B9B3993BBBD6CD8BBB5A2493C2F8E823BF9D33ABC711039BCA8AE8BBB31EEB13B696A05BC4A0A483C4B20A63BC88539BCDC52B9BBB583E5BBA46D9C3B31C6063C8127A03BEACD2E3BD0643C3C3B3528BC0F2D20BCB957F9BB1B51D8BB0C25543C4AD247BCEB21FCBBBE8D413C9B182E3C44E845BC839759BCF9159E3A43FE903B7E65583CD561163CB5181BBC2D098CBB9776DC3BFFD01B3CD7C61EBC6F97113C2F4F0FBCAB27363C766B203B385F3CBC3172493A10E83E3C696EC5BAAFFA593CB98129BC8EC2FEBBB606C43B4432933B24F4BDBB7B091EBC2E84A8BBFB9D923B993B073C2ED32D3C858F9D3B3D49CDBB0653B4393B64053CE10B4D3B8BE35A3C90100DBC56411D3C3612DF3B0C3B643BFDAD423A6A1BE43B8482CD3B347C1A3C1088BC3B3B66133C8C3F01B94373DF3B453B9F3AB3D3D33AF072EC3B43F84B3901D3353BD1C0383CE4B20E3CEA1108BB9A3C5D3CDB4E0C3C0A8812BC4679AFBA934715BCCA360BBCA524D8BA85D3B23B24B6363CC1EE2A3C3D9CB5BB5DD8363CF058543CF9E53F3BC54BBCB946E0E039369CF7BB49F584BB99E74E3CECCF653B16C916BCF5CD19BC51DD9EBB82E1413B9AADFBBBBE7E043CF3CD283A5AF20FBC2487263A71E4FF3B0F1E0B3C91149EBA1877663B6265823A410E42BB46B5933BFFC85E3B7621AE3B9898313CD1169ABBA337D93BED4A4A3CE80CE6BBF335F2BB3F442A3C6871B1BA188D3BBCFDD791BB3F2143BB5121C2BB408096BBFB66CA3ABB68DD3B392041BB7336593BAB395CBC490BFD3BD55CE0BB730E263C76372DBCF05E33BA4A4542BC5DA74B3C88FBCD3AB20BD23B1D2D5ABCEE9F16BC665929BCAC1C313BB5733FBC8E19EBBB33BFB5BBC5DECA3B73C725BCECE4163C0EBF173AA83715BC64F932BC255A383C39828A3B6A6755BAB7B042BCBBD0923B38903D3C9AC80F3C55B2503C0495EE3A7456D33BADCE10BBBCBA513C7F974DBCC0B937BCC541ECB9A554CFBB48F3AD3B1020A7387C862E3A11941CBC181CC6BA00797DB9281B8C3A08EE8DBA2BAFD7BB496513BCBAAFFBBB921ADD3A2A8E1EBC30B395B912F446BC546737BC61174BBCC4F655BC2BB1353CCB2804BC260B72BB22A5373C06B458BBE64A04BCD45042BC1F0F113C56F72D3CA28438BBD6558F3A6E87103C695AFCBB8BF6C3BB0B27F9BB8E119DBB3E01F03BCE0F88BB8C0A28BC834016BCFB601FBC9E4449BC8102E03B0CBAC3BBD5F22FBBB2C83BBC35A5323C069119BC694C53B979024BBBE425F0BBD806A13A96BF6BBBA28FC9BB47DE0E3CEE279B3B6409D8B9CC7A273AD56A40BB2681A93A09432ABC5B0D963B996A453BF9C74C3C5E7F00BA4F551C3CC3D8433C7D1C9DBB7707EABB5D804FBCFF3D213B194F873B7CA42ABC88D09A3B65195BBC9E18413C33A61BBCBC0BA4BB42F35CBC9A8E35BBE1B2873BB4AF07BC2EF1FCBB1EA9073A84A5E4BB90E4043C0D6BA4BBF9775D3C2C68253BBA93323BAE668F3B1ABEB83B7034413CF121723B040D26BCC8F5083A85828B3BD8373EBA94D18A3A966D2B3C9962483C29B717BC90AFAF3B774ADD3B420111BC93F04A3B8C9D123B02A4943A4CE258BCFC60193C6CE087BB71A032BCB85C72B9277FE33BDAFAAD3BA9AD26BC76630C3CD21C09BAF5CAC43BA6E78CBB24B30E3C9D3ED93B35398B3B2ABBE1B8FA5880390D6159BC9E1915B9DD9618BBFA0AAF3B61011B3C47D2BCBBA04A44BCC7DC5ABC57EC7DBB1B1120BC726017BCAA1CAA3BCA5008BC43AB453C423300BBD0CC1DBB76BA3A3CFAE4963A3548F63B668957BBF70D8B3BDADF053CCA2FA03B541C273C77215B3B7D9EFDBB57F724BC8D7D863B52116ABB6DAC3EBCBC744EBC4E15E03B0542DABBEE51FEBB4CD5EC3B11B50ABC876F4EBCF0DE553C1EF91EBCE32627BCC5D9FBBB4ED1FDBA5E09A43B66CD443CC89C8FBBA9CA5CBC06C907BA4FCD20B971CEE1BB38FB2B3C40F51E3C2462FEBB99A518BBE7243F389DDE303CC8F6453C35AD133C33384CBC1AA3DF3BCFF500BCF1A013BCA59219BC31C04E3CEECC0BBC4A0F17BCD30A0DBCF661DC3A60C0423BECD1AA39B75B36BC348B6CBB8D06C0BBE1BDE3BB3BB2003C68314C3C947E1FBCE8A527BC5731D6BB08C22EBCCD0A493B1B792E3C9AF4163C9DAE263A65F95BBCFE9D5ABCBD989E3B7D72433C7E8324BB10AD49BCD7BD4DBC8AE2EFB9F3BC79BB7B3D3EBCE856D73B97363B3C5C5D213A13AB55BC6CE2BC3BE7C52B3B3187423C3B86063B626109BC101A1C3CDD9F463C5D5E123BD998E5BBB4D6393C6F69BA39072DA63B330435BBED42BE3B209200BC4F7632BA3F4A213C7426103A8B43063C1665D93A971E313BAAB76DBBF381A6BAC90CBFBAE83E52388DFC893BB50F30BA4E8E06BC1CEF4E3C5EC83FBC26BF973B2ACE5A3C2658903B13B7C2BA467122BBA24415BB6A74AABB65C27C3B593AA03B1AEA20BC5CD009BC183843BA382151BC4A8DE53BF0E507BC5EA246BCD649C9BB41F8213C03E8283B649526BCF7461EBB3A6102BC65CBF23B52A40B3CE45B843A6F183B3C6D78D0BB255AB8BBEC5BB13BBAB8A63AC50DF33B28BB90BA0DF4963BACC5EABBEAA4473B772A883B2B66413B21C23E3C98C19B3966B0DA3A115C3CBCC1A83FBC8AEB9DBBED92D9BBF18120BCC285233CB8AB3C3C24E815BC728B4E3CC1D43DBC4A6B1BBAE1F40ABCAB274F3BC1E4833BD387A0BB4EB804BCED9046BC2EF65BBC7054553C2D6437BC35B51D3CE9F3B4BB126EAC3A2492503C36018FBA540B503CC2AD193C3F26AD392EBF483B3C0E17BCE19549BCC25E423C993B233C2C6C2CBC0626003C0062B83ADE60A93B2402E9BB5502B6BBDA2E013C2A70A23ABED3383C6A9EC43B4A3524BC1325E93B3C7948BC28B6A6BB125F583C4C53803A746DFFBA38F4CE38745A7B3BE5C8F13B102D2FBC2876D1BB1F35023B517839BB335F063C93C9543C60D72A3CEE94273C1B88943BF1E6D0BBFF3B88BBF44B5C3934C8D93B60C3693B0D2017BCF573B2BB2CF2203C952EE2BBB11FD1BBB8CB8F370AC8153CBAD74A3C4F30903BC3660F3B7E6901BC80C058BC97C920BC35343C3C162450BBAA975B3C7DCD34BC0C817CBBEAC42CBA442DEABB80485CBC012EC83B868C183C9A7F47BBB858313B3E7CA83BCA5046BC3FBCACBBC6AE21BC48C3CDBB6E61223B24F9463C30454A3ABD5138BCE9FBC1BBF1361CBCC2548B3A596CD8BB58CB8BB955C9203CBE7320BC30660A3B06FA18BC087B98BB3EC008BCF717983B8AA5163C6FADDEBBDF8A2EBC524E5B3CF0807CBB162D4B3CC933A83AB00758BC62E3D1BB3F1A833B57C8F2BBB235EDBBC29210BCEC40283B4FCDC53BBD7E41BC0A582ABC8F9A773B1741453CCDBB453C087EBEBB943A193C9432043BEB773F3C3B399CBB80931CBCE4B65C3C18E5FEBB916C41BC1534E53A574E973B3FCC4D3BACA619BCB9AE333CDB6711BCD8C2953B0F709F3B059F79BBDE2B543CACAA0A3BA8711CB9E8A0CC3B38F54DBCDFF9593C183229BC9B1A093B4A4DDD3AE3324BBCAB87F1B97FFE323CD9574ABC4A10C83B211897BA20CEF23B261EE1BBE2A04FBCD26811BCC204483CC7BD0A3CF28109BC5663393CABDEC43BFCF43F3CF2014ABB02FD99BB4BD230BC40620D3CFCD9633B415C063CEA8E3D3C94A3763B2B3E263BCE06E83B3F59573B65DB3A3C2DEFE73BD5A0B8B9496E873B106D4E3B2D1BD23BFAC8BDBBFA71EABA8C85FD3B7886A1BB3B91AEBB4228BB3ABA0027BC2D8CA03BD84E013CF6C9823B4C61523C49C012BCA19A513BACDF1A3B8B08D53B702E13BC61680DBCA77D49BB783245BCFECEE3BB099555BC69BA9EBA3A570CBC26B34CBC6BADDDBB641840BC66BD173CF7582FBC3F5E143C4D83D83B305568BA6A80D3BB715443BCA7FCA9398AC2103C61410CBCF009A03A773F1F3C712F3FBC7E51513BD3D9883AECAEFFBB82D1B03A2E401BBCA7793CBCC747333C0CBA2B3C14657BBB13D7BEBB8E9A04BC6C0522BAE26AD13BF3A8A5BBBF87D93A3B48E03B66E145BB21D1FBBBC57E23BC32F82C3C14070A3C44166EB7C2C8A6BB6A081D3A0BAFC4BB5221A6BB2D3D443C6932553CDC43513CCEC225BC9938403B040ACBBBDAD8773B1194053C430D6C3BB6F1C63B889E50BCDA511FBC2FAC49BC5EE129BC5ED6123C4B4DCEBBC6F5403C72BF3FBC24B9B6BA12CF9B3BF545243CFB42653BF11D183C174B07BC0BB82D3CE0CC1BBCD430283C681A523B6764223BAA3734BB43531C3CCCA21B3B0781CE3BFEB3C3BB74BF37BC6782A0BB8F3A08BCD6C3533C05D1263C71DE2DBCAAF110BC722ABFBB014612BA9409303C375FAA3B0FD415BC03799CBB156900BCCE219ABBC8C1B3BAD08B2CBBB057DC3B572988BBDA680E3C4B0B50BBCDA77DBBC9C1FC3BBBBD113CEA994EBB00B635BCBEADF8B8DA733FBAF6DA253CBD1503BC387A0ABC8B10573CA0A8E5BB1A970CBC63FF4C3C2C5CAC3AE94610BCBA42363C590821BC4A09023C4E1D32BC24F53FBBC64C39BC35C93E3CDAD4DEBB84B458BC865630BC861CC93B96EFBF3B6C3E273C29FB30BCA81CB33B676038BB6A65963927ACE7B8B90932BC0AA425BC82E3C23BE7D228BC7FB4A4BBE25046BCBAA368BB7C76DABAB0852CBCE2D8A9BBD33C113A3FC4D7BBED7D3CBBA6E7343B5B62BFBBE1A71B3B94C34EBB410A093C54812BBCD0144CBAF153DD3A58F6443CC44F1B3C018126BB3250123BE9F85A3AD20DF6BAA407453CDD6BA43A867A31BCA817D6BBB8A40DBC99BFD4BBC8AE4739C0D58D3B649758BC6585083C03183A3CC050DCBBCAAFA73B2ED5C13B305BC2BB80C8493C804924BC595725BC1C80F2BB69E83A3CBF56EFBBACCE1B3C339E123CAFC592BBF4E7783B512EDEBBAB16E5BA7BED413C0F36243B7885213C2F17563CEAFDBDBB6A004D3B7BBB743B38BE21BC0E83153C62FF9C3A6308E9390C885CBC820B183CC51085B8D7BE31BB49D8ABBA2225193AE8AB10BAF2C6C03A39AC8DBB9F67DFBBCE47E5BB05D2273B35AB65BB99E113BCD875F6BBE31ED63ABA321EBC0B2133BC24E8C8BAF4E5913BB3C9D0BB8EEC83BBD5BF493CF7403B3CAD0464BB7D55123C5BBBD03A2AB7223CA298B3BABD1310BC1DDC2ABC72294BBCA54B19BCA655F3BB2DC2B43B3DD6FB3B782D843BA570283BBCD280BB264238BBB475F03B8A1E3B3C6E4122BC287C86BBAD34423B4C8F4DBCF1E1663B1319183C530662BA91C219BC70495CBB075700BBF43B633B1B95403C06DFD73BFD1715BC82F554BCC83F3CBC14D8433C8D02F33B971B3CBBCE6C293CCE40263CE5F648BC24D03D3C465CBF3A901D3F3C2242BD353C56163C8FD5363B5B9539BC79A91FBC33B6F0BBE597543C3DC7763BBED8AFBB1AB62FBC128A1CBCCF931DBCE997BA3BAFDBC0BB7569E23B725F10BA6C6B923A2CFC0B3B79FC27BC2F60313CDF7A13BABAF3143C89C9093A42E537BCE76209BCE47633BC26CD413AF8989D3B54443EBC55404A3CC15A86BB937632BCDBAEA93B880754BC4744E63B3008E4BA792A00BA46DE463C034AFD3B979ADBB801398CB95A233A3B928BCF3A635BAF3B48DD99BBB730143CD67D2B3C7726C33AE92BC83B63AE4A3BEAF52ABC891703BCD40954BC8E1E533AA96ECB3BAD9DCDBB2951CDBB69881A3C49C74CBCE6F5113C565F39BCF0CE813B9B270C3CE77984BA76184E392E9A01BC30A102BB33C35CBC503EB73BA1918FBB1857813B55B4593C1244063C8E0C3E3C437842BC737928BC504538BBA469CD3B0CFD4239E00601BADC45323BB6CE8A37D9F259BC5D9317BA05F31DBCA69016BC73271F3CA743A8BB59F5A23BF5A3AA3AD261783A06E79E3B0D82F9BBF5CFF93B8E50173BE9AD46BC10783EBC3FB8513C81F333BBAFF6A3B95D3241BCE6BF77BB50A4C13B5D57673AB7AB34BC771D27375BB44F3C7156CF3B7A90D039CBEA5E3BAE08F93B002E023CEB9B143CB8F529BCCE01B63BA24355BC36DC993BEEF5073C316D3ABC6E1458BC2551A93BC9DA0F3C0C5E163CDB5D3A3C6036F639A027083BDBE3613B0D8E293CF74D92BBB107A4BBC85CB7BB11369C3AA562343C3030423C8F3AE6BAD350493B0F2D27BC38B6863B83C4B4BB778F0E3CEA2ED0BB5C7C38BCFE7F98BA7329D2BB33F0013CDA48273C82731DBB353EBF39FE4E203A434C20BBBA61A1BB2BC44E3C3EA19BBBB31ECABBCF8C2E3BA8BF11BBC6A9A8BA0B8F43BB87F3443BB68D723B93FF8F3A4F30A93A278B29BBF4529FBBA11AE43BB02B3ABCCC20E2BBAA0F19BB00ADB7BB29DC573B40CD2FBC8E5313BCAE7FB13AAFCD0E3C2D246FBBEE8F51BC7EA8EEBB527C583CE1ACE8BB4DC5B2BB91A648BC325069B97B5DC9BB0C1ABE3BF342CF3872523EBAC156313C4C421F3BE52B053C8C0CD4BB281851BC1B3618BC794293BA1A5FD4BBF1E83F3C144E993BB45BB6BA84D511BC1EF734BC858EA9BB20C52BBC0B06243A70128C3B54600FBA8AD25E3B85DE43BC2B654C3BAA1E91BB6BDA3A3BF18E07BC74C8FABB41B2FABBB1D2F3BB95BFA53BFF7316BC9EA5393C3BF44F3C9695C3BA0DAD49BC054AE83B4B9CDCBBCCFBD43B0DF218BCEFA8283C1B1314BCC9E14A3B4C814EBC4C951D3C4D5898BB268F413C65199B3B8AD2473C09FE4CBBC0CF2BBCA2C152BC1B9CFE3B1C88113C886D76B9CD894EBBF8DF343C4F6BFAB915A8103C622C533C1F9D70BBED002B3C339859BC2C8905BC3F48B93961F6583C053DEFBA997A3E3B1F975B3CCA3845BCD97B383CC0B65ABB67FB43BCDB03273C61379BBBC44B5A3994940E3B36B622BC7CEAA9B9A6FBD43AB87E57BC590743BB24E1763A6714463CD9E5CFBB4AEB3C3C57A94D3CD4DFDFBBE50553BBDD5502BB8F2DD43BAE5054BC461716BCBC40CC3BE5B1233CF6B65E3BB745E2BB2E14E5BAD028D5BB6651143C4938B6BAF218B73BD307803B152AA5BBEF445DBB312251BC05E2B83B1D5601BC7B9EBA3B2F09EA3BBF734E3C36451ABBFABADF37D37F413C34DBBA39D5EE933BB98C7EBBA5862A3C31B136BB7DEDD83B9BEB09BC9915463C3E688ABA3A58CF3BD615383B932A20BC12D71EB9AEB6AA3B8131D63BA6C85ABC7FEE69BB5513893B96C1213B5CC0553C18444DBCEBA491BA19C2BD3B3BA5743B3CE392BBDD71593C8BBD2D3CC533823B5EA758BC92E35C3C6F254EBC40FF103CB4111BBC8F161FBC0239AD3A46DEE0BB779F4DBC2BE2A0BB52F5223B8FAE1B3B39F40B3ACD702E3B27600CBA19B6583CEAA3D2BBD969303BAC5FBABB959C8D3BC104223C90DA183C01E220BC27E3893B343B50BB6B7C04BC083F2E3C1BC0FF3BB2753F3C0AF20B3C41436E3BF3EC243C34FD2DBC23F127BBE18D383B9B16EB3B4259723BDAB7783BF58D44BC7E2E453CE524523C9BA44FBC1F31C2BB77D703BCA89990BB80203A3C97AB953BEFB017BCA6ADF5BB1A7A19BCFEFCA83AF7CB6F3B5352E43BB9E8C5BBC6FA103B91E8823A5404463B0DAA2FBA479A12BB5743F53BA833A1BB806125BCA762293AA4081FBC5586BBBB3BA54DBC0953CF3B284DC23BB0F09DBB00CD4F3C5DB4423C3570D13B230340BCCC01973A2D8F2FBC38DC53BB8B5103BCEEB13D3BF77A48BBEAAC7B3B628633BBA278C1BB0EE604BCF5023A3C38703ABBB9A83EBCB62A92BB9D2112BBBA1E0BBC2FE39DBBC105A63B6B67213C456157BC7EC8EE392618433CBBB801BC7327023CE7626B3B4E3BD43A4CC5353BC876E53B717A38BA4C32143C378D3B3B5A068BBA2464F3BB67CB53BC9EE691BB6AB49ABA71E6353BCE6370BB6711923B54953FBCFFD4443CE6070CBC5E6CDD3BCD69163C2ADA05BC1D70393C60D1C6BB50D6D1BBD19893BBCC4736BCC41648BCC37F0ABC1C1A11B924150BBBDFE2763A4F2759BCCAD84FBB841D4F3C6020D83AF359F03B4A91C33B5E9F99BB9C7A32BCFC7D253C9757B9BB2CDACABBBD7230BC1F95253CA12EDEBBE3CA2C3C6138A8B913036ABA9247763AC2087C3B09FACB3B2004EBBBD8D526BC63DE0DBC9DA90BBC3AD454BA4268F8BB7245273C6F94A1BBE8A4E6BB22F620BCDA24893B57BCC93B185AE83B30E4323A8E8ED4BBDBE0AD3A7A7D0C3C211ECC3B088152BC8B57D6BBC4C0363B501842BB5AC87F3AE08DAFBBC77C533B58AF7D3B5F371C3CFBBD32BC52A93ABB10182EBAD407473B528DFB3B5AC89038CC86E93B11E807BCAA3C5C3C506D943B476D1CBC36846FBB820F5FBB0758A6BB0817413BF0CD32BB4B2056BBEB2AD8396C86553C9A8435BC5A042F3C531C21BC595A31BC96954BBC73A1D8BA12E1AC3B5A7733BB02314D3CB87AA5371E938E3A1E95CDBA6EDAA33BFE5888BB922D96BBD11708BC25E8443A94C0343CDFEC353CAB26B8BBA565173CFC15EB38277897BB8EE72D3C7A0B56BAE97D8BB9E230053C5DCB003C22ED303C2B29B9BBD855603A21A611BC40A710BCFF20BFBBC7BA243C51EE02BC423FD1BB6468B03B20851A3B913042BC371A86BA6DFAA63B942DDBB862B5B53BC5DB3B3CB728A43B9299EFBB920EB13B851651BC1112F43A13FBDA3A8594F5BB2B9A933B4C28C83BEC7B8B3BC49F073B9B4A19BB45E21DBCDC623C3CEB78283CA488803B271C423BE727C0BBD5D58B3A6D1454BBFBE885BB1D31BB3B24C8093C97F2333C382F98BBB26D5C3AD8D98E3AE40A3CBC61A4363C642F8D3B1B14523BD4EC49B9EDB58FBBEB7BCF3B8BDC2C3CA1B1CC3B59A61ABCDF8F2F3C9D133C3C28A3203BB95D5C3C38B6B9BB4D58D73ABC88FE3BEED98CBBA1FBA63BE233963B1DD82DBC2AEA1ABBDB1F293C779D473C031FA13B7C9FF4BBAD0BA83BEDA61BBC31213E3C3A667A3A8027E23B135F983B12DF0CBC550002BC7BE9BA3A4B2F0BBC1016AFBBB7E538BC957671BBEB9B253CB971443A359907BC4196F23B4E660BBCAF3BF9BA34821C3CC0813D3C0E51D6BB0F0502BC6F64DC3B6710AABB80EE283C2DF5113C9CBD48BC59826DBB78E32FBC54B4AB3A6DCF00BCE4355ABC398351BC1F3038BC6BCE133CCF86C7BB9A4D743B00D11FBAF2013E3CC6D1B439A88E1B3A47FA4C3CD5CEA23B51BB07BCF3D907BCE9B9C5BBCE0ED23BAC6AD63B4B2D44BB3C269FB9D12A5DBB86250F3B53C1813A4CBC7BBAACF4BB3BA96005BBB82076BBC6A5723B2CC4D0BAB31F17BBEA35F83A6084BBBBDDCE433C1E14163B240EC73BA5164DBCCDCD1A3CDD23983B57923A3BAD599ABA41414DBCE8FD533BF44314BCC9A8823B3C9AC7B92B614CBCF20BA9BB447405B7DBBDF83B12134DBBB646023C5BE94FBC6006E6BBBBC91BBCD17B543C5BC535BCB5E7623B2434053CB5C7BD3B7F42963B508B0A3CDF5E643B26DB4DBC65F5D93B2684AA3BD19644BB65E9F0BA2F26DABB2BF84AB968D42A3C05A612BC99DAC63A6990A8BB4CE8F33B25EC863B48F67ABA81C7BEBBDB29EABBB0237ABB91725C3CFA22773B86EE1F3B19AAD8BADC8A233C90582C3C475DD6BBCFF9363C4EB6203CDC5301BCAA2F19BC496A2DBCE3B75BBCFF3BEC3B980D5B3B5C7309BCC92FE5BB77F9C0BBCA2EBABBE509D7BAF8EE5ABC5D9FC03AB7C7553CCF1E113CFF90FE3A3A963E3C70483E3CFEAC38BCEAC3493C40BA3D3C2D47E13BF192A5B6272B58BC6CBD34BC6124343C895050BBA0F6103CA468423CAA13413CCD4D3FBCDDE65BBB951E123C826270BB83ED113B522D763BC02B5DBC1ED3CABB5DA2AABBBBB6E03BD0F9F5B971262C3C17E2283CA77D3FBC52195B3C8836EF3AA3DD08BC95703D3C69CCB33B2D46553C4B5204BBD6AA313C6884C43B3784E93A20F2BEBBAC46393CEF8BF63B3AC8043C44AB8BBB34B5E13B290100BB7B13213C44D9D8BB037306BCD9A74C3C252BE73B749F32BC0EA32C3C1F8F223BDF45473C414231BB40116F3B1C9C1F3C0E2CEE3B4ACA423C3420333C5CDA323C58F90CBC0B34E53BE1A35ABB70E019BC231ACEBA363B5ABCFAA207BCA7B72D3B4CA40FBBFB1FE63BE0571D3C56538F3BB5A2FC3A67F3A1BB626D10BC76691B3C2B21A9BA285CBCBA89E312BCD9D6173C8D1B2A3C4BEDC6BBB095B03B76AD06B9A6E7B43B0BEE9BBB6F2AD6BB743145BC01B0FFBB3F4456BCE05F8938D6C71E3C93A554BCFD3526BCDAA2CC3BFFAC17BB9F372ABC04A72D3C03E34CBCD5DAB2BB8FA195BA068F2C3C617FD9BBDE5195BBF4082C3B7B46133C1DF2573B75D1AC3ADDE2BF3AA5250CBADFA6FC3A1C1F2BBB502C17BCF83219BC1AB69C3BE49B663B70443BBC071E93BB680E4EBCFA1A5B39F2F90DBCB582F0BA3CF2A5BB402A25BCAD5DE8BA4494463CDB7E133C085CCCBA5EC898BB67FB1BBCBA2C81B97EF7153C22A738BB9E8A313C9676ED3B12891C3B92E84FBCFAFEDEBB84F2DB3A338445B97388553C86CE5A3C46CD7FBBF50C1C3C0D6BEEB837615F3B75402EBC179B693BED1A013CEBCA923B9C06E43B6BAB853924E614BCBBEE363B5F560E3C747F043CE75706BC8E9F153C0A19883B31AF54BCD108EDBB2E85323BFE6A69BB22EC91BBC364BFBAD0043D3A7FCD0D3C2562163CCB3F2ABCDF0EA2BB1BBE5ABBCDC698BB80D0C3BBC0740D3CAF715CBCEFAC2A3C1DE81CBC138F9CB9C4ABD53BD0922C3B7AD89EBA3CCF1A3A7E2282BB69B6043C3EB816BC9B48993B6B16253CA174C5BBCA8380BB50087DBBFDAEACBB9211C0BBA2E4B5BB23B9483C975BEC3BC9DB21BAAD2CB1BAB11221BC00020A3C35E13A3CB961A43B11CE0BBCC9E116BB844A213CBD16A1BA61DB093B67E1FEBBBBE98EBBE67130BC2B2B08BCC9052A3CC3F0FCBB8B68C3B98AB045BC9166453BD86EE9BBA53ABA3BBE57C2BA118888BB2460B23AB6789EBBFF54ABBAB89B24BB395895BB312A03BCE39EF53BD175133B3001FCBA865A14BA37EA1CBCEF13473C57A232BCF25C283C17CCAF3B0AA3F4BABC4BC3BB6EC0903B603A273C18B195BBC7A55BBCC7B99DBAA5CF23BC0D446439BCD903B9DC33093B006DAF3AD30D203C614915BC450C5B3C418FB23B4FEF553C1BDA5CBC3F802D3CBBD62BBC724A4A3C1B03343B5DF074BB3EFA153C7371AEBB16DD12BC57FF1EBC949B1DBCF956733BE3AF4BBBF1D4113CF8BA4D3C2BAB3FBCD26B7EBB555D6DBBC04ACE3A379ACDBBC7A1023C1BFC15BCE61704BC6FFC013CE65D16BB4E844F3C0CB7353BBF3BC0BBDE38103CC797B6BB1F4895BBE0EEF83BC542283C760D4ABBE803E23B4183213C1E775CBC5CB8B43B2260193CB34209BB4D813E3CCA608DBA630A303C409D07BB8E9FE33B5D72373CB49BCA3ADBB15C3B1610C8BB4665E83BF9BEBD3B3599153C22D70FBCAB8B003C156DBC3977FAC0BB01A68D3BCF1D153CDE59CCBA7FC07538D8FB81BB6589C1BAEA6457BC4CF513BA65E88A3A68C8DA3ADF81EDBB2381A63B0129D4BB4F6B1EBC1744B13B220D02BAE3725C3A784A1ABC3EA6C23B1D782C3C2A285ABCAB50D13BBD2735BC3B298C3BFAB7373C82D780392E622C3C3CDB243C4459D0BA6021FB3B673512BBA6F6D23A2C25B4BAEC7304BC02F8173CC36BB7BBC200EE3B903E2FBCB6AFB23BEACBED3A50BDBDBAE273093AD8A20A3CEEDA4B3C4BB77D3BAE40493CA3F43C3CAD2617BBD7E496BB96DA173C948F05BC2959043BB3E7353C3D67BDBB8373E53B8C0E483B8B1B3DBC892051BCA1FE9A3B162831BCF0A296BB4D9F3B3CD64CEF3B7785563ABF872E3C45F5063C61AF17BCA4118C39B209A13B5069E9BB9B76B63BEB5B3D3CD20F76BB3CF3B138F18956BC8C9B1FBB6CE7EF3B846D2DBB1531083CDD6F63BA204B063C573A103C6CE20ABCF646223C1CC1193B500643BC6959D5BBFC40D4BACE72CF3BCB1C64BB58B957BC4123BD3A87C3F0BB677FD2BB47C80A3CCED3433C88D6C2BBA7A1303B581BC1BBA5D8FDBB59EADC3B19E60A3C11F136BC9103C93BB96C4EBCA047B83BBC5DFB3BF9AFB9BB0C7B29BC67AF11BC58FFC0BB3CB235BB09B866BB4AE1D13BFC1A0ABC4C9DA53BAB916639DAC28C3B77B54ABC3795303B9B42083B08683B3C26BB093B8DF447BC8978043CEB6E493CD36E96BA1909E33B8F65CC3B685DB4BAEAAB98BB81B1E73B8092D63BF5D1273C6A994FBB447644BC1B4F21BC7636CDBB427C4B3CDBDE2B3B35EB0ABBCDB7ECBBAB43073C475FE23A331FE43BFF90F2BB079B97BB67D4D3BB2DFD94BADA5D85BB8E2D1A3A3E1C47BA824212BCBE134A3CF5FB093B4725E8BA6E8E373CF4D40CBA03F919BCB695423BFDDB38BCF71DFE3B607A373B76B8483CFF1FE3BB3A3EBA3BED6908BC7FAD29BC125623BCEE25CB3B3FF94E3C38D9B93A3B76E438D9A20BBC296B43BC8754BFBB3BDA06BBEC88C3BB755F003CFB012EBC34AA253C3FFB913BA8BF55BC8DDA003CE0CC0D3CDCCD60BBB6740BBC6935EFBB4C46033C39131CBC632734BBC6A4B1BBC7C0583C0C0B4BBC6E9B2E3C86C4C33AF6524B3BC20A4A3CE7F516B8804BD4BB00D9DF3B1F8E2E3C70D84D3A7ABA02BCCAC90A3C14748339B9591B3CC1EE3D3CCEDDA83B3025563B1117933B743755BB7DE80BBB8428C73A817EE4BB0F5214BC0A12C2BA23C150BC8FD0E6BA7B1D13BC427FC23BCFC8553CEB84F6BB2DE1FD3B1337213C7F78043B5C53073A871B123CE924AC3AE4C60EBC1104D8BB6C892A3C6C902CBC610B2EBC8A938BBB6FDAEBBAE01C1D3C62DB563C03C93CBC7DC10CBA1E7042BC7B4BF43BD7F2083CF43E26BCE3850B3C7187633B5B5A0A3C8B03EB3A74E248BC7BFF0FBC8339843BA6F979BBB3612EBC6928253C20B8453C1A6540BC24DCE9BBF711E43B093BEC3B8E7DE7BB1875CA3B3A4944BC4BA979BB4ED551BCCF6BEE3A37B7D63AA4722CBB960B3C3B79FE143ABA03F139627F183CFCFE48BBA39B0A3B9346403C34DA963B7710173C9FF60B3C358B48BC019518BC5B28BABB3360BA3B99B71F3CD336CD3BEBCBC3BB16638E3BAEB2243C6AF50BBB2CA53FBC2143323C7BB20DBCC5E5FCBBA89EBABB6D5C083A2AFED03BB1765BBC6F1FC63B7AA2D83B1A3021BB4AD3CEBA00FB0DBC1947463C1E3DC83BF72349BC1438D03BAF22413C9652F73B452E58BAA2EB8FBB80F04F3CB22134BCC114A03A718F8BBB6C5F9ABB4B003B3CCD3C9CBBD7E0ED39C182373BDA3A5BBC9AFA0CBC6260CBBB880D633B555F62BB89CADE3B3BB2C43BC9B16ABB7DA4C1BAD251903920A3453CCFD2463AACB913BCFEFB0D3C377DC1BBC73E20BCF55D1FBBD67E5C3B28A0153C9F40BA3B19E5093C11C13B3CC00AB9BB6364B13BB450B2BB796DFAB911A776B9F39D5CBC490B703B8342143B7508E83AB2FEE8BBE069A3B954EAEFB8DEAD1E3B860E133C08FC433B77BF953A7690513CDFDB35BB7D1D91BB181D6DB8C8FC163C56D6D53BE56750BCA202213C026B00BB689922BCA945543B498830BC6B7A2DBCDC2C50BC44EE2EBC203D0F3BF84C0ABC7AC2A1BBE9AC393CA89869BBDB649BBAEEEF78394D44F43BE6BA063CBCF9E8BBE63AEE3B2EEC3CBCF046483C227BF43A3C104E3C3D1132BC3A468D3B96A1083CDBB35C3BE0A0833BA1DAF23B2A861BBC4D49D0BB73B418BCA5CC7A3A9A2D2BBBE9BC513BAB63463C613309BC40999EBBDC14893B9F0055BCB2F9CC3B7D94093C467694BBC34FDDBB251FBEBB70611ABC1E78483CC6E122BC0BCA20BC758EBB3B864A47BC24DEC53BA73C8F3BE7B3553B89E29CBB60923FBBED1E1C3BA4D40EBCCCF42CBC3A040DBC7F88ED3B52435CBC18961E3CFC5AB73A943906BBCE10103C340F3A3C1556CB3B46F775BB8F7312BB722A113C844787BBE7A45CBC127D813B8A03523CE0D850BCAC29FEBB2B6F113C2D0B1A3C4EFDA63B81594BBA0F6C923BACA7473C9A5EF0BB09A72EBBAC03E53B578642BC9CB453BC5497603B4588083CFC86D43BC26C773B5264A23A19CAA5BAA96076BA21E54F3C55BD1EBA03EE2A3CD97006BCE5A959BC5A0C38BCB847453C397FAD3B34C7B43B037D553C3B2F4CBCAF701C3A69F0073C7B934D3C3AEB2AB98ABB65BBB17A323CBA9400BCAB6E84BBB57BFC3B4708243C6D7037BC3F53FCBB9025103BFB7A863B022D2BBC819C88BB87BA373C40909BBB9D3014BB128DC5BA396C0A3C0D4D1CBC19B712BB483DA2BA1593AFBBE88066BAD6D120BC81444F3CEE02FFBAF84F4F3C61723EBCE31045BCC024CDBAA77E0DBC3F26413C90F25FBBFE4C86BA99B90C3C6AC4563C330FF73B39B2E63A76BA4EBCBDA63B3CC3E0B73A4551D7BADD2312BCE3B4CBBA5021203C363EFB3B9DAD72B949419E3A99460BBC535559BB9A461C3CB336AC3BEC2B1BBC7ADA873BC7E2163C0DB8313B46E6D53B7E80123C7197213CA4531ABC8672323BB2228FBBEFC01E3CAE6514BC8BCBD83BD8FE08BC8DA2EBBB9244C43AD811A3BA36C0863B01F6DBBB9A95173CD49921BCC930723B928F0CBC4AAFF33BE4740CBCCB0E2CBA235FE63B261D1F39EFDB083BC4B73F3B1BA5D0BB524D4DBCFFA237BC13E135BC1C63D1BB49EDF1BBE7C0FF3B35E3063A24FF17BCDA4E6E3B92770ABC22BB373CF9CA35BC785DB9BB4A13633B7252A6BBD43957BB1BCA07BA0956DD3B1EAE17BCC68AA9BB400D2E3C6DF71D3C28A3543B903B153C6B39A9BBD08F203C2152013C980D4CBB74FB01BB7576CCBBE14A3ABCE02050BC23464BBC6E3DED3B2B33293C7663843A9720F2BAB7A630BC7A3A583C9FA0C03B9EE729BBC1ED363CE17F273C6459C23B555E3ABC160FD73A10454C3C7EE94CBC58AC07BCF66BED3BC1B7E5BB154795BBE5F5413BAEC8CBB8036F453C6EF2923B0D19BA3BC1C9F7BBB053293C2744DDBBF0EE1E3CCCF34A3CEDC031BCF5650A3C1FF42A3C5AE2233C56B41837C3C0523BB223B63B164F5DBC86BC33BCE5DD323CB84EE13B022CA93BD1F9413A835EABBB97DC1B3C216A15BC55DBF13BE75E26BC335A323C1A6F8F3B7C245C3C161671BB01E5C73B55A762BB3586333CEF07E33B8F19333B8F51083BF036053C4F004C3C4D897F3B95411F3C3A798FBB8762933BC35C43BC9C82153C735B4BBC02B3BFBA015930BC688B5EBB9857CC3AE443093CA992EF3B6393583AF2B722BBE5EA3DBCDFFC0DBB378451BCF68066BB5C3AE0BB22A5C43BA824E7BB2B7D5CBCEB39B93A7672113CD5E35BBCD390BCBB5162E3BB4048CD3B2593E43B830929BC04094A3C1E8FBF3B9F6652BC086BB8BB3265A5BB283F433C2738373CD88781BB08ED97BB2708943BAA7CE3BBE8275CBC763C0FBC2E38D83B7A863F3CF531843BB95D3EBB7066A7BB09F55ABCEE3B063CACD632BC3BE3EEBB8FDEDC3BCD3D2E3C32731EBBF28128BC5CE61D3C1CF8493C8D4F093C1B9B3F3A1E48D8B925CF2F3CF044023ABDA887BB0D5468BBB98650BC0995B63BBAE032BA41980CBC9762AF3B3A28273B6D75863BCD66DABB231A57BCEB00253C0EC9BFBBA6423E3CE5370C3B43EF383C16F547BC0030FF3BD616EB3B1EB30BB958924EBB5FDA3B3CBBB346BC3008F3BBFCC5C13B3EE7B3BB5AEDF3BA470AF8BB82A924BB52AD113CFD6047BC16D458BCA0E21BBCF38006BC4CD45E3A4A3A383C9B7040BC9AD3B23B500A30BC8FD4023CB8891CBC2EAB28BCA4890FBAA70778BBDBBEA0BBC9332C3CC591413CF9E24AB981B707BACA6B353C7A60D93B584E453A3F4084BB189BCC3B1313BCBB4C29E43B8725553C136C283A1F92E1BB85D0BEBBEB311DBCC44526BB3F0AEF3AD6BBFCBBB391BD3B7995E2BBBBAEC33BC1D1AFBB1632423CF459213CA12E883A52EE0DBC202CFB3B2D4736BC0BC2D63BCD6F463BF4DB083C62F441BB78D8313CBC9051BB39E838BCAA7236BC2F46CC3A2868723BDE78613A871E533B765AE43B28D6A53AED2F193C038AAEBB1FCF5DBA9AB446BCAF7F533C0A7C17BCDA998C3A1845DF3BA654F1BBD8ED1E3C878441BCEF461ABC4C4DEFB9EF7EC1BB40041FBBB7A585BB28801CBC8830BB3B5358B33BF5DC0B3C0D6228BCC93503BC03FE563C47C92F3CB5013ABCD560D53B608CE23A2E9A223C0C5AEE3B5298733B0E4169B8D2EDC43A9B48E3BBADA1343C6C04A13B21FF32BC9083ED3A5C5F033C442D9F3B1363B0BB972935BB96620DBCAE8F1E3C6A920E3A33A35C3B1073433CE453A8BB4E90E73BF1745C3ADC5D8A3A894D243CEC780ABCE4B2BBBBECEF02BC9EB43FBC934125BC7AB555BCFCDD8D3BE747263BFB0C4D3C3CEF3E3B5F2704BC466936B910F329BC062FF6B9290A083C294AFC3BA535123BE45633BC2F241CBCCEDB8F3BED140A3CD31C27BC627038BC3BA9CDBB65C3B0BB522350BCC10A033CE5EAB2B9FA8723BC1D0F89BBC6DD573CA7BC063C414A01BCAAB176BACD8238BC53DF55BB92EE823B3BE2413C4727A9BB78AE6DBB735736BC4B43D6BBFAEE37BC383F173C89C5583C03164BBC6EFA43BCB6562BBC9EDBD83BA0766C3B81170EBB6B834A3C7C3174BB89CE223C69D91D3C3B24233B103025BC3564C03B424056BC378CC8BAF6078A3B2117703B18FB093B888B543C4960DABB1BF502BC6F6FE03BA103113C4FCD52BB50A935BCEFD424BC835F143C41C74EBB3D7F3A3CB9F499BBDE3B4EBCF9E1063C57AA34BC54D34DBB211C813BD25812BC7F08CF3B418E54BB31E7C83BA6FE3CBBD10CC83BCDB030BCF0E70D3C1CC3FB3A95D4F73A3B1C443C68022EBCBCF14C3C9ED08BBB16CC493B191BDBBB965DD73B65D891BAF9B93DBCF17B4B3C7CDB49BCD7B9393C8CC803BC7F20303B582253BCE4B136BCA3FA19BC9B90A3BB76A99C3BE02C35BCF2AA453C995FDABBDFA8AFBBC0664CBC05E1C33B0861813B9B9E493C58421B3CE7DBB33BC53423BC72294A3C329FED3ABB8D1B3CDFF5BD392B040DBC81DDD2BB95DD2D3BE741CA3B3AA5AABBC9ADE8BBA15CD43B9522E1BB551CF0BBDE72ECBA6105133CA2A0B7BBF794433CCA87CC3BADF89FBBA1B58DBB224AE2390EFE883ADAAACF3B293642BA42C98EBBC4D73F3C5AE92BBCD97E303C862BB6BB9F172B3B2FAD56BB7BAE58BB79B0B83B1F31CEBA4CAD9F3B3A8B7BBB5F29C3BBBFF3B3BBF3A54BBC728E22BADD67B03BEA8918BC378D463C697D56BC31AB173C6A69BDBB1D58543C7B9223BC6D9DDFBB805213BCE1073E3B9F3DACBA30C2FE3B15D7AD3B4BB80CBBBF321FBCC88207BC49F9443CCAE1AB3B880D0ABCED30513CF033BB3A79012FBC53B3093C8C8D40BB11729A3B82E7183C3C40F3BB5084E63B9124E23B0B2F4EBCC261EABB1E514E3C20CFB43AD057B2BB49B1C5BBFCC89CBB5B8A9A3BFE68E6BB76FF083B73EE52BC29125D3C7D75BEBA3B77E3BB583AA4BBD4B5103B6EB545BCEDBC0A3C0209933BCE7F0D3C35622EBC640658BC8DF4323C207C643B79A31BBBB05702BCBCA357394159003CE767093BA6CC923B103FE2BB1C32133C555346BB656FDE3B3A6027BC0550C5BA5C620ABC4B9ED0BB568B46BCD1BBB93BC2291D3CD9E72E3C48ED923B66824E3CCB3F3C3C7C982B3C2B00443C4555CDBB932F86BBB4BF13BCD3E7013B0272DB3B69C8A5BB9749D8BB6C53633BB9F5CCBBC79A0D3CC047343BE891AF3B42C20D3BA37DC13BCAF40CBCBCC94B3B360E58BCB4F03A3CD31041BC54A4713AE10BCC3BC2C08A3ADE087CBBA35782BB7BBF36BCF516F93BFC4E32BC79A3DA3ACCC441BC57117DBB8F6CF63B59EEEABBE0F26039862E73B9B17A4ABB7C800ABC70510F3CBCBF273C5CF30BBC2984F8BA1CF541BC5B7720BB4689373B3E990C3CD1A60BBBC8270CBCA95605BB60A5923B0DA7873BA9F376BBE529AE3B0BC60DBB7A2A393CF0C7123C8883D9BBAD37A8BBE3D5BFBA843845BC072108BCD82986BBD795EDBAD8D21B3C6DDB41BAC1C7DE3A66F3E33BDF4D2ABB15DE4F3CD1D748BC323B3CBB8D6D2D3C5469063AB520233C5EB204BCC1B60B3C4EDC1BBAB4C2D83BF1EC0BBC84B706BB9DC00F3C44DA19BC0FC62BBC149751BC85CFEFBB513D4C3B2CC5AABB8838803942835B3B445B3ABC4A9B3F3C846A2BBB2F5EEE3B37945B3C6DE390BBB0FB283C58009FBB438F833B44F9D73B023540BC21E92CBCBBE50B3C4B6597392B661ABB1BBF263C87E945BC9F8B3F3CC50B2CBCA6A1F33BE639BD3B9839DBBB4A9F5F39D78F533B81AA8DBB0BC2233CF3E1603B24285DBC4526103C483DD2BA1A26443B722857BCDB8CF3BB0A5602BC71D2FABBE1A5F2BA0D03F2BBD4643CBC102300BBA53118BC48CEBABB9AC3A0BB521E5BBC3DEE93BB6B68223C5090EA3AB1FF943B1F9B51BCDA875D3A6DBF203CCDB6D0BBB7A3E73B85830B3C350111BB182F39BC3CE51CBCEC811FBC975DECBBC729DC3B48D9EDBB620D2F3C39C9FB3B55413D3C0EA804BC4009E9BA708B02BCF6E625BC64FAE0BB55D8E6BBAD404B3CEF07173CE485573C9C4F5C3CC6022DBA5D3A133C2B1744BC52114DBC73A72D3CBE2D813BCCBB3DBB8B4A0EBC25EAAABBBA9C103C5FF6B33BF9BBD6BAD06C1ABC22D22EBB7DCACE3B80B81D3C009424BCCD35A73ABFC9E3BB2D0218BCCCBF1EBC5F9E45BA5FAA19BB9E74493C24AA3EBCE789AD3B1F59A83BB594923BD57C453C8DA0AABBF9B2D33B223F3FBC301450BCB3B64BBB089F0BBB5F57F8BB03EA5CBBAF259D3B76A7CE3B4A7D2F3C40AAEEBB3B8A19BC336DE4BB04476ABBD6D748BBC15C0E3C5384D0BB6C39D8BB2F0E2B3B3CF2FDBAA1E50CBCA0E54DBCA76382BB9649EA3A23518A3BF988E93A5974833B3D6F423BB1E0883A3A82003CA94E08BC44EBDF3ABE4CFBBA0EF755BC6E2F693ADD054D3C49CDC2BB8A7CB4BBD07F99BA34D70CBC04DB5DBAA39108BC12FE4FBB3F5DA7BB2C803E3C7E847BBB3D2328BB2DC9E7BB76DF40BC9DA1D4BB92C4D73B3B57E5BA3A734C3A69251D3C90469B3BBB2006BB7962A0BB7A18593CDD8C213BA45BA53B61F19D3B93D50EBA4E3B3E38ECB33CBC3E5C3B3CCC774C3B0636203CC9605BBB46B6EABB7E57033CD3528E3A2D13E73B6C4793BBBC5BE33B322CECBBBC19663AD2585E3B604711BCB3B1D63A5F4CC53B84C407BC816A69BB1440293CD0AFDBBB04172A3CBF0247BC3CC898B920F974BB733F8FBA865FBBBB0ACE38BBC6EB973AA42D203CEBE9C13B7A1A113C042629BC1CCBB5BBB74EFDBA6DDFCE3BDF84583C901403BC5EB3B9BA6DEC6E3BA6F39C39E8C1FCBBF311CC3A7EAEB33BEBA7C3B8BBF2C1BB80DD6EBB67048DBB645DAABBF6CD473CBFBDB03BFE898DBB6587273B98D1B73B40615CBCBF570AB98A3F1A3C784DC03B9DB2303C4F9144BC0667EEBB82CE1EBC99A251BC2524BEBB6BA8423B92B73FBCCE3408BC392AABBB99E25A3CAAAC243C913C37BB8A0531BC94C4CEBAA3A1403BCAE2D0BB1FE2D83A9231103C471A3DBC9DE73C3A0839D8BBFEA8123C2257DABBB5C86EBABBD6D23B84650CBC8CB704BCA018B43910504FBCE136E73B10A6ED3A130B4C3C8C9B853BD99251BCF8841CBC9ADC833B292AF1BB6315D33B254355BCF4CA433CBA7CB63B991D683B4F4997BBB4C5F13BAA50AE3BDBF8653A608AC83B207460BB45A92B3BEF55403CB797E4BBC26436BB391B3FBCC6571F3C4F76B43BED9CDFBB8AEB433BE9F22DBCF9FF17BC6CC03D3B1B555C3CED5B603B0DC5DDBB5D809EBBFB2C3C3C87A9F53B7D3D3C3C52E6ABBBCFC3293C531350BB13302CBB737E62BBA31C0A3C2CEC1FBBFF27D83AD548413B60C45A3C69148EBB7CA2C1BBB5B611BC2531503B67B50ABAA0CB983B4D4DD13AA12A55BC12D4E83BD50B0E3C71F188BBE25C123C32C6153C886CCFBB9E8F27BCBAECC2BBF01E033CC3634C3C482D22BC49AB433CF18D393C9444FBBB97092B3B95C23FBB3B1CC43B48371EBB91B11B3C2ACFDA3AA7F333BC45B2E1BBD71C363CF37401BCC55F003CF765A8BAC6AD033C7222593CF35140BCF3117CBB8C583C3C6DEEEC3AA3C4D63B86A73ABC76895E3A894F28BCB9C3203CCED0AF3BE1DF1BBC002D81BB5CD3FD3AC2C615BC7BE7AC3B540F4FBCFAA48CBB90A8883A0E402C3C66B0013CD1E4603A526C5D3C7A4791BBDBC997BB45A6A9BB2BDBCFBBB32FF5BB54B91ABC707C17B9577B7CBBB4520E3CBD6764BA49F0143C0FCBB0BB227D853ACFC5C1BB6154343CA75E80BBB16958BCB627E83A14E4D8BBADF7AA3B05BEF8BBB7C636B8EDD18CBA60BA203CFB660B3682A8C8BB206F53BAB65D293C22074CBBE752CEBBFAC2F9BAE7EE33BC77BD583C3A51423BAAA1633B62E40D3C37E280BB1EAE16BCBE36383B91C74DBA6240A8BBF479C63BA7198EBBCFB3C93B83F344BC58E5D33BCDC6E43B4B7B4ABC7D062E3C5835373CAD1BD23B1DAC063C89A9303CF54F1C3CB2B5903B129C30BCC2205ABC2F771D3BB506283C6AF10FBC5F2F3E3CD960BABB2DB823BBE3501CBC4EB481BB1FC04A3BA820063C612D463CE11D5E3B6967403C152E1DBC90C6AD3BD2D3243C7D80003CD52735BBA0C52F3C010B08BC7EAA043C43FF1E3CDC70FF3A8629A83BCCC29B3BD143FF3BD0815A3CA9AA4DBCABB6B53A69BF793BDC566CBA917F5C3B84D44EBC2A15CEBAA56310BC831BD53B5892E73B9190D63BA1E0373B0D295BBCAC0AE83A7B550EBC05AF3EBAD552A0BB2C9000BCED15243C72A64F3A52BD41BC7E02853B035B853B75CF2E3C7FF23A3C2DFF28BCBEE7203C54F9A9BBA0203EBCCFBF263A28ABFA3BBCA662BBCA28193CFC7037BCFA0447BCF34284BB1976973BAD040B3B30E27CBB0A602ABB8AD0513BC5B1EB3B7B971E3AB0308FBAD6CAABBB3BCA9A3B9B8DEEBAD3849CBB238B193C51B45CBB148412BB2A89E73BD2EF06BC075A0A3CA70121BCDF06463C1D41C039B498A4BBA2EB763A1A4FB63B55792BBC6E8A893A6EC52A3CD6EF17BC497DFD3B5A73E1BBC1F357BC0E2BA6BAD9CD2FB9AA0F40BCD9ECC3BB2569C93BB05B453CB527503BDDB93D3C66AA4F3C46164C3C7BEC1ABC5F7519BC7790FF3B2A043C3C92743A3A679D27BB4C48D339301F953BDDBF003CF2EF36BC9E853A3CDD38393CC29AD5BB1107A8BAFC0658BB3270563C51B08D3B08808D3B265A30BC5D734DBC34785C3C13877C3AA250C0BA094D403B1A1DFFBAA52E373AC7382EBCCD0214BC1C3CE83B829336BCABC09FBAA9F7483B0F5C0D3BECBE16BC11BCFBBB8D512ABA79814F3C5971073C1BAC46BCCB4919BBBC69CEBA3ECBD1BA0E851DBC871939BA4CA9DC3B3303E5BB7713B239C4BF173CA77EA6BAC3513FBC000C0C3C9AD33D3CE424563CB20FEF3BDA9D01BA235C713BAC8C233B46B337BCC2DF533B7BFB20BCE533A63B3117DB3BAE30C73B4822D7BBDBB8D03B38EE64BBB4BB253C12E4543C758896BA24F6593C0ED8003CD39D0E3C411ECA3AED92F43BECD456BC014E89BB23CF3D3C4B31EB3B23C9B23B9227C5BBD62A3EBB63C605BC7A39E5BB2CA2AA3A393234BC3510B03BC8CB6BBA2D9EE3BB439806B9E0708C3B82EF0EBCE3900F39996D39BC5BF7C03B71FFF13A6373733B0A9C19BB2918A13B6B9DD93B1B17DFBBF4D3563BD05FAABB0D9B173C0B253B3C6487C53AA85F303BAA713C3C8C431BBC05B2E73B8B4CBABB61583FBC35E5033C6A0529BC0B8452BCEA01B33B52D9513C2E96923BA31A4F3B4414EE3A9B1E7CBB2A5E1A3BCA39F13B988931BC4B79233CEAF87B3BC1CB9FBBB5A6B13BE4EEEABABBCBE73B51D626BCDEB64DBC95942F3C3DBA1D3B846FC6BBCCC421BC341A01BC5DD879BB68DE4FBCBC39BE3B85B25A3C29F7D3BB979E6AB8864E9ABB518B8F3A681CB8BA30E8C1BB33572C3C0E4C89BBD6F44CBCB259BB3B8416A83B6DD48BBB370A09BC56A356BC4AF318BC7FE0483CA94C8BBB5288AE3A2E2B7ABB826F72BB26E0B13A800A2CBCF5B50CBCB28E363B1B4D8CBBF153513CCF0F8437F5DB6EBA37F808BC5D0E10BB23761D3C215B9739A34E2FBB724F98BBAA6D78BB5959193CCC6E2E3B20B457BCFCBDDA3BD09122BC2422AABB7DAB4EBB75EB4E3B555839BB7BB75A3B6092B2BA5009313C06AD4DBCB1B33FBCE76D1ABAF9B9BCBBF14524BC3510043C70A2E13B21D4503CFEE9A2BBE837113C90B019BC0CB17DBBEFD05CBC87C24CBCCC90EE3B41C343BB0BAB7FBB2E461E3CEC4F34BCBF0C8ABB00273CBB83AA2CBC6F889F3A2DED03BB12C35C3C0770243C3556053CFDA13E3CDDF5583C4E21E6BAFDC77E3BD3A537BBC790DA3B11F621BCD409413C624256BCF2DD48BC8E76063CF21034BCA66FE1BBF393ADBB1B1654BB6428FC3B6BD83A3CBD79123CE2DA1DBC6D5039BCD7F6A8BB8D17E03BB915E3BAC116383C05BCABBBB3724BBB65AB4D3CD004153CEEC629BC30C80FBC304003BCE720E43B646DB13BA1FF7E3A41A1AA3BE6F6E43B815B0C3CFBD7F03AFB71ABBA5D1B4BBC70F79B3BC01C333C4053763ABFA4F23974B31C3C5EC2033C76EE593CC082223CC6FD0DBCE8661EBCD898583C44A22CBC773C723BB81E1DBC6A7E6A3B482FE8BA5F2E51BAD51B81BB8358303C3554A2BA6D46343B0E3B2ABC8595C4BBE76A5DBCE860493CD08317BCAE26F9BB3EAD083B272F7C3B3E2920BCDFE4053C7E4365BB7EA5623BB008D8BAAB8D073C914F1ABBE07B1DBC996AD2BB9AF70DBB630B14BC776BF5BB15330E3C180343BC4A11CB3B738280BB68DCAF3B28EE13BA0ECB9CBB45E498BBFB6E48BC2C0FB9BBB7768EBB516C9B3B822611BC726BE2390D53293BB18C043C65ED4B3C7A0053BC98135BBB81179C3B24AE1A3A7679BDBBF22AF03BCB9A4D3BAE340C3B331DD7BB1144173B9A12A33BC8BEFFBAFFFE193B56E6583A06060E3CAFC2E83A90F1093CB7270D3B3A87593C393870BB0099B0BA9FE9453CDB39193CF2E6BE3B1917C13BE1F169BB5DBC203CE92F963BAEF64E3B45EA583C764352BC4C2134BC29CEABBBB4DD0FBC076C163C5901A53B2C1012BC1450F13BBAE5903B2A42073CACD8A4BB693222BC301EBC3A255242BC4AD836BBA5C39FBAADA5173C7C3F4CBC171252BC35F6BFBB535E443CA363123B9D67CCBB06E81E3CB81B163CF5134A3CB5F051BCE8A93CBC2B77ACBBD8F68EBB654A953B557F023CB9FB803BE05FAE37CBFAA53B37E351BC7E6E9E3B47C9A23BF33D723B7E7CDFBBB61A563C1CF0FF3BAE47D1B9341EC53B24BEF6BBF3405AB938454A3CC8CB6BBB48DB583C9E1F8BBB259F443AA5C14E3CC6062A3C2F883CBC967346BB3234543C0EF392BB32B729BC6CCB8CBBCA4C3DBCFF4249BC1292ECBB20523C3BEC98483C28E59EBB6ED916BC1FDB093CD96C4B3CCAB229BA8D0C1CBC72C0393C0F63343BFD8D9EBB7DD676BBAC563CBCCC9EC0BBB49623BBEDBD043AD3A9363C55469B3B7C8E3CBC92DC4B3C0C6AC2BBF4664B3C16D1D8BB60951BBC3FF19ABA103D15BB171DD7BAB43A5ABCF88259BCA1985CBBCEDBA7B9E69F593C0A56CE3B47498EBBAF91483CF293C9BBC65F133C9040483A2AE638BC2EDBE8BBAA64763A91AD08BC845F233CF04D44BC674723BC0DFB633AEE5CD1BBF2D734BC7C8F483BC9F3C3BA81F9103BE818DD3B078D513C6FF958BC2348393B0BF9423B83204E3C37203A3A7E18F23B903B2F3C19EF593C83CE053C8EE9263C101897BBA7F34BBCFBFF343B88C4233BA50E43BB0D5E383B20FD303C1C1410BC1BE937BCB2C58ABB4D56C83A655FF43A386C773B4E5A403CB5BA463C73DC2CBC2B9638BC7A982DBC2E03F7BBE1D8523B13F4C83B161657BB3F35E53B47EC5B3CA04AEC3B8082053C5C1D3D3CFFDB0BBC9020333BCB730F3C0E6C473BD6AB953B076A20BC625448BB31D89FBB329F453CF53E133A8A165CBCA3659D3A845F5B3BAC0656BC7DF10F3C09E39D3A3F5C98BA9C61103BAD68F9BBADDB303A2EB69DBB12433DBCE23023BA96B24EBC56BC0EBCA875133B3E4FCA3AF97300BCF50108BCB213D73B39FDF1BA13D40BBB8ED0113AF38510BCFAD99DBB99C21DBCFB9635BB4CCD51BC14D2D337E8B2943BE9DC25BC4196E3BAB863E93AB510253B7E931D3B97EB00BC0089073AAC74333A94BB5A3CBD89493C7E52093C0C742A3B4CC3A7BB8F92D1BBBB78A43B7BD7F2BBA7093B3C14E9683BFECC5BBCF8E2593CA32755BCB4538DBBF696E1BB3E97D73A1A54873B9836E7BBE9B3373C14D193BB9ADF4F3BCB1260B97D2DF0BB9CCDB63BE15181BA3E3310BB7A72953BF9D15EBBB72DE63B45FC133B28274A3C536C473C33DA8CBA7F126D3B938952BC2D355ABC3617C7BA1B23BCBAF67603BC654A413CE27360BBF368363B85FDE63B80DC54BBECFF45BB411269BB553D23BC142EE6BB9059C739B71EC83AD083E6BB433CE43A2B647339520E07BC06E95B3C625222BC3816DB3ACA65D93BEF6EC9BB647E423C1B760ABC9DC7223C22BD3E3CB273323C213B8BBB8B8128BBFC0EC3BB0A8F54BB1896C8BBE75818BC837312BC7AF5B4BB99B7DD3BE5C43D3C95E9003C9AA221BC3E273C3C5CF5893BD4FA4F3BD72C3CBA32B5DBBBBC04F83B06B880BBCC181EBCD3DE1C3CBD511EBC8516D73B2B9FAC3BD1752D3BFB8363BBD4EDBEBB511C3FBC2C6A57BCD0AB1CBC63783F3C3E895EBB860215BCDE6738BCE51B513C303485BA5D2DE6BA261B063CB12734BC88D0333CD7C8C03AB617C7BBC133EA3BCCF4EA3B2976E73B24CA313B7EB53B3C80CC43BBDF9231BCC561DE388654A8BBED12EE3B2FC888BBC54B5BBC9111123C434ED2BADCCB943B447A1EBCFB3D50BC642023BB3BD7AD3A85BF373C471C98BB07DF1B3C976DE43B5568253A18EB5A3C240BED3B9BB0BDBA6E26BD3BD71B43BC03ECDC39C5B121BCBCD40E3B66A26C3B40CC3CBB23AC05BC0740C3BBA5F1523B2222BD3B2AF8C43B48839E3B1FBCFDBBD71715BCBF88293C28E60D3CBA5936BB358E11BB6CAF41BC5D5D203C6A38333C48AD463AA38D193C794717BC17F0943902FD8C3B0D5255BC2EAA40BB1DADB3BB38FE94BB5B2457BCB45B5C3CC5E7B33B1D9E523CBD106D3BC3F88DBB9BA802BC908C6F3BEEF26BBAC2C80DBC10FB00BCB2E9D4BAB7C0593CDF6C363CA335A7BBE1D184BBE6AFA7393D87FABB92522A3C14D03A3C1655603A18370ABCDD4F25BBCFBBCB3AE45D45BC82D714BC5CED6DBB302303BC2BF456BC1063D4BB35702A3C18B3353C804561BBC7853C3C8C024BBCF4786ABA6ECF403CBD8BD8BB9C1FE0BB6B051A3C17A8213BB5A901BC9A59953B23B6773BE525A03A87EF56BC48620E3C0793623B8E599CBB62EA3DBCE4CD52BCDE1F013C39A2163BA375963B6B713FBCC4960EBBE2AAF0BB4A3AA53B13945C3CBA3312BC9CD0753BC14AFEBB78200D3BCE4D1CBCB9C83BBB8CC9C73B1144F83B481953BB39B8C1BBBBD6A13B25E4E8BB97775CBCEB8B6DBBA967E2BA54F1323CDD27D6BA126BC43AC80E4EBB9E2D4ABC8A43F8BB6B61B73BFE9AD1BB8C5D3CBCACE484BB55BC563CAFBC44BCC185F9BBD7BF24B960FC1DBCBBBBE3BB8D40BA3B962AEB3B411BEDBB27AF67BB55D307BC77750C3CC6FA83BB9FD93B3B4CD746BB11A82B3CA0C3223C17E512BC71BCB6BB7EB69C3A42D83ABC277BA33BF217DEBB0CBD5CBCA37F09BC78A7F93BD9D06C3B0525673B3886C13BB124BBBA17B5CD3B931A0BBC591220BB20C035BCF36190BB12819B3BE0A9393CAAFC2C3C97F41CBC427CA5BB824A29BB29DEBCBB49A73C3C24FBC23B8EDB4EBC09FB263CA564E33BB3987EBB04BA2DBCD10EBC3BD18C393CE0E969BA059887BB9840523C70B33A3C5467CFBB8517583C1C57A73BCABB333C14A7503C66A5C83BCFE059BB0D4FCE3BEA264DBBAC36953B8BA73FBA9EFB3CB9DDE6FE3A758A1ABCD634313CE010DE3AFDA44EBCA66F2BBCEBC13BBC57D4253C91D82A3C0A0444BC0A9A123CD7E71DBC92802D3CA8CA473C9F6DC7BADCED1F3CA0E5473C0478113CC72C123C89AFCB3A5FBA0BBCBA9225BB2029D2BBE81D50BC7E54593C850B153C6AB60D3C022723BC064B1F3CE49C71BBF71F10BCFC34B7BB77174DBC01BAC53A56B5BC3B7B178CB88E0C413C213909BB45F2053CEDB9DA3B04199D3A173879BBB44AA3BB6F0429BCDDEEB7BBFDEA58BA08B9D13B2386093CCDABDABB3EDC57BCE99D14BC420DDA3BBEE50E3B6B0C4FBB53CF10BB97BB653B03093F3C1E78C23B9B160CBCA232183CD517303CB0FD8B3A0D4538BC01009F3A96872E3C2256F53A1A3239BC9C64C5BBDE6A01BC8D93333C818C31BC29F62DBCD334363B9997163C1B3AF63BF50EAB3B212F46BCF79F49BC9C0D4BBB7B61063CBC3549BA5258433A999B04BC8587053C3824083CD6CF0C3C6313BC3B67DFCABAFA40493CF37B3DBCBF3D04BB18CD133C44FB10BCEEB5963BD954353B56C42FBC50A884BB36AD31BCBDC52D3BD3BDA5BBC0F97DBB4C26F03B4F9E673A53503DBBFD54A63BD2E650BCF26CE3BBEF871CBCA509043B8469AABB274C133C4B0C93BB2A0C4CBA79E48C3A863D233C9D1EE6BB588E08BC27E609BC59C7B9BB974740BCBF0E813BA282193C8C14E4BB6E10843B2F77E8BB926429BCAAD89FBBB69BE9BB84538A3BB9F13E3C74D5FEB96538E63B3CACCEBB7C2EC0BB9B658ABB91FC203A877EE5BBCD192ABB1A2E53BCA14B5C3C0F732BBB3021F93AA439F1BB9392C2BB7DE455BBB4FBF93908664DBCD76E873B0304263B14FDC9BBCC05253C3DF43A3BC51E2D3C0B45503B0520163CF2E1B0BB856A683B69C6613B5FCFD53B2C3FECB9D5DDDA3BDF2C453C1F9BE33B004251BBB38B153CF171273CC86FCC3B51BFD13B2953833BB872EB3ADFDB0EBB8E432D3AB42DFDBB9203413C68ABD13B3A7A423CBEB88B39F08959BB0135BC3A7F1AC8381768053CA3DB1ABCDFEF0F3C5F191ABC7934C33AD86525BB7791B5BBB159213CD841473CC660E7BAD8BA423CB6CF3C3B8CC82E3C3D0A443CE6A0C6BA65DA9FBB8DFAA43B1D923B3C0B35A7BAF761BFBBB11F59BCFE7F563C331DD739B3E083BB21A9553CACDD8D3B038ED4BB373B9F394DFC0C3C9CEE003C08041FBC0BB22ABBF372D33B5F88063C5F4F86B9D54D4A3C2D676BBBECD8A0BB91EEF53AD2B6593C4A2C1ABC0CFF173C58B5DA3B3C87C13AB21607BC5CD00F3CBCCA523C188E3C3C0A92223C2DA71DBA56E124BB0A7645BC56D7463CABF30C3B0A9322BB5B8AA7BBF586F73B8688143C7EA04D3C88472ABC8BEE02BB5B1B1ABC3E97FDBB2DB03FBC85B1E73BFBCA49BC9CFC44BB5066C43BB104113CE0070FBC0F76BBBB2A0B6FBB0AC5E63AB4548D3B3F96D3BBA9B2A3BB29FE1C3CC506FFBB5650E5BBDB88B33B7929453C09EEE1BB784B35BC3E7F443C91A6CFBB7F5846BB4B17273C26E2A63A7B17D6B9C8738FBB6132B2BB01358DBBF77E3BBC89283A3CB35DC63B920F4CBCFBF849BC03758FBB90BC9C3B0798803BE92A14BC2FB6FE3BEBF794BB72A067BB7262783B120B24BC953CDDBB6D3FA43B9ABD5CBC9CAE513BBDB6BF3B8C0B4CBC52C5AA3BC120FB3B9674943998E88FBB548E1DBCAD6D1CBCA0EE0BBBEB01553CDA1C2CBB8D2B4EBBA7C00E3CF92E47BCAE39BFBB34EE093C38F6083CB98902BC8C4D3E3CFB4B473C2F96C1BBF4FC133CF12D0BBCEEB424BC5C913A3C00D939BB003BC43A4680FF3B14D4C83BCBFD4A393A11373A211410BC396E47BC580D6EBBD6B2793B7AAE4E3C2462A7BA18A129BCB693D93B2E31FB3B0451EEBBC20C983B92CD993B20330ABC58E9AD3AE603F43AAD882B3C0E5E1B3CA8C9AD3BBD210EBC3916BDB9F778D23BDD7440BC668B403C0B5124BBDEBE493C531516BCADF11B3C8042F9BB82B12ABCD71ED23BD645FABA5BDC5E3BB2CA1E3C125531BBFA6F063B2D695E3B5F9F08391A8B32BC37D520BCA639F53B5FF94ABC5D73C03B3F9EFABAB70A013CED54213BE43884BB1286D9BB8DA4203CDA6A4C3C64E703BB0D20973B613FAB3B9F2D8EBADD82863B4DBB403C0B40C4BB183611BC1A112F3B3488C5BB9B934A3C498233BC1CE71EBCC18006BC35AEF23AF8585DBC3482B5BB1E487DB735E6473CA1726ABBD9E68F3B9AA2483B27E741BCCCF6F83BE6A1C6BB5C26413C9319A7BBBACAF83992504839C7BD5CBB7481273C9D7927BC8E7D07BC6562553CD665523A367C32BC09E95CBB30C41BBBDA9E2DBC8DF313BCEF0BD7BB8283A13BB23FB23BD15453BC2ACF5BBC7FB5BD3BD25305BBFC1486BB46FD91BBA17B26BCA651CB3BC2CA47BCDA1E87BB818C113CF4F6F0BB1FACB9BBBD72C0BB221F55BC959C233C27D4563C745CAFBADF914DBBC74EB63B89A97B3B5533A23A85B03F3AFFB1BE3A4D57B23BAA5E82BBAC38013C3F1E38BB8E078DBB545449BCC6790FBCEB15E83BDCB5393C8E9DE43B7C3AD13AFB9B933B009F3ABC44B5E43B34E83EBB1724153C79E0703B91BD8C3B14330B3CD3F425BCE837FF3B575297BB8686523C71651F3CF6104EBC64E98E3B895CE13BA88C31BB926442BCB66CF3BB641DD53AA3B74EBC09D4053C1A9E273CCD47F8BB30DFE5BB6F2FA43B6C46923B45FE5ABC115A4DBC6A443E3B5F853F3A351B8FBB74F8BF3BBB963B3C542E043C003DE93BAD3508BCD5A2BA3B7A88363CE4D22BBC4D5F153CEA561A3CCF01F13B7D1B773BDEFCD1BBF54E813A0829343CF61B103A1E020E3B47F6E43AD7CF0FBCB8EAA4BB1DFB593B55B70E3C7561013CD37B203CD26503BC22EE9FBB8C769EBBE54F59BC7E6927BCFAA719BCA92E2EBC2AAB75BB6E2FB6BB0A71F0BB353F26BC4015233B9C68A03B4F72F1BB5FA120BC1C870B3C91D04CBC00281FBC12CF823BF8E91EBC8882443C60304F3CE7B0CABB73303C3C3CAD47BC6A7C14BC7A762A3C3294D13AC11FEEBB656C78BB86C3413C489BD8BB92D9783B2457D5BAF1F1463C10F2203CE8090E3C80E3633BBB1657BCEB970B3B4BE0E63A8A41AC3B77D4C0BA81B3513AEB69BB3BFABB403C0E0ACCBA7254013C126E533BA3191E3CBCDE393CFC200ABC7F0EB9BB5678DA3B6AAAE0398248FF3B67CA3D3C3DDBD7BB08380E3C4E781EBCF1565CBC12F14C3CC339113C0CAFBF3BB514F23BD167483CF22CD93BB364BABB4AE7F83BA4B1B5B9A44B50BCA141243B5DBAB03BD17AB9BBF9243BBC5EADAA3BDC2FD0BB321DB5BBA2E380BBE15528BCAD5FDDBB3E6815BC3A2100BCAABFBC3B5B9D2FBCF72C6D3B71F72BBC4E9FD33B4E6AE5BBE745D53BC5D1ADB9CE63F0BB7A9EAFBBFD0D3A3C048FC5BBEFA767BAE4CB2CBC61ACB63B0654503C190015BA03DFBC3BA35A9C3B91D1323CAD559B3B2E1C403CB25DBCBBB041E0BB23050FBC9853283C343909BC64043FBCB77DB6BBED7D03BCA0C605BCA6BB7DBBBBB9363CA1D2F0BA4EB528BCA5EEF73B746F1D3C5BCC2C3C5A953BBC1ACE573BC5BD80BAE520D0BBB791E13B609111BC6979FB3A29CA45BC6185A93B680880BB3FB5A03BD1AC3E3C75ACAFBB269F463CE3AE51BC57ECA4BA7DB1383CE12B6FBACD18143CA221B23AA3CF5B3B99940C3CBFDB133B03B731BC9BC5903BA3FC373CCEBEA9BBB87D123CB58600BCCDDFB83B937706BB3CAA05BC264013BCBE602ABCFC363F3CA0652A3C34BD62BB5957133B2C50093C4989863B0403A23B7FF378BA4FD31CBC2F70363CA3081DBCFDD4773B4895FC3B579CB1BB5D9324BBF76A30BC77343DBCF2381EBC16B09ABB450B583C6A2FF6BB52D757BB0FECEF3BE0DBCCBBEE5555BC326F36BC72CBDC3BC3912A3CD83FFF3B344513BB13DB0F3BE0D1E23BC587913A03CE113CD0622BBCE669423C50BD8937043D843B652107BCB04706BCBF37273CD824123C21D1D6BBC5E0B1BB50EDCBBBA6AD243CC31325B9FA8A83BB8AE18E3B75EE113C13444C3AB4E550BCB2040CBC3CA24A3C0BA3993BF68E86BA1E6DB3BB9B9F173C051C4DBB85EAD33BF2A1F23BC5704ABBBE420DBCBC242BBCCD9A47BC955572BBBC5B3D3BA5D75738D40134BCF82B903A76A79B3B88597BBB2C4B40BB33F112B96B84D03B4E0F2CBC7BB75AB9B7BF8EBB4FA2D1B9727CFF3B1C1F923BB9F9BEBB9D48913AF54F203CDF84263B711439BCBD5F963BBB976DBA26C84C3C20D0B5BB2E48A03A1705C33B805099BA1E1C4F3C92EF143CE39C863B1C4307BCED76913B1291D2BB847D243C3F5E1A3C14304FBC7D2BA2BA0856183CAE3C653A27AEB4BBBB502CBCC729573C33953E3B4598053C4C28FB3A69577AB9A55651BC2BA196BBCA2156BCDAD35FBBDFD747BC3691253956EF1EBC80B112BC52D21E3C827F2E3B5193F4BBCA9B21BC58E713B9184661BB4BA1D1BB69E3393B37C2E63B230830BA7594E23BF30730BB4D62213C0B0D573C6D541A3C9AE800BC157C25BCDCC3AAB78F6D843BB6C52D3C4D4D4E3C29AE3ABB11690E3C72A99DBB0F188EBB8454503C425833BB67DE453C0FD0BEBB86F0F6BB51BFECBB23CC46BCF666D1BB2C4B07BC06AD5F3A43404CBC071A4ABC2A70A03B5833EFB99FDFCA3AF1F797B9D7D2103A9EB4D8BBD9FD2BBCB6C73EBCDE75F93AEE166DBAE02A0F3BC3F7DABBADAE6CBB62E4863BC721DA3B3B6607BBFA5BA5BBD11DFF3BF36811BB8BFF26BCEB50193C93882BBC94153B3B582549BCAE0E57BC56AE48BAC8AD033C36C7C5BBC917C13BFA7F4BBC6F1918BCDFD6CE3BDEBCE1BB0C241DBC87BAAEBBEEB0083CA1063CBC0647EF3BB6D6BDBB9A7F403CDDB2BB3B10E3DA3A2750A2BAD835C83B300FF53A54CF8CBBFEB46939AA1A05BBA8D54A3CF392123B9054133C12A926BCE29BEDBBC688833B98AF6ABBF7F0FABB3B42F8BBC923893BB41DECBB2EC01DBC43FE373C0EDA2EBC99ECFE3B5E8A2ABCF3B3C53A5E01473BF5D83BBC7AC3EE3B48AA92BB1293AB3A46B424BCB94AB63A9B9DC2BAA8EB21BC7CD7D63B15A132BB26256F3BF83F54BC4C95B0BBCC8F4D3C3C837CBB9E37F8BBC584DC3BD420133C06AF0A3AB13E0BBCBC8A153CCC70513CD7601DBC4FD4D2BB08AB083C1AC0E93B78155A3CEE52553C21CB1BBC0615D4BBED04C4BB3A707E3AAC8896BA7D8CDDBB6405183CCB804D3C1394F4BBB4B6C6BB6F7519BC5A2A4B3C8604D93BF62F0B3BDCF431BA56C9C3BABDB244BC3D46BEBB6446223C78C11D3C93838CBAB7B534BC5C72F53BC235F13BEED9D6B9B7CF203C895DDFB9367B21BB558770BB8E43C7BAFA8A1B3A18B70A3CE4AF1B3C94C9D13BCA88323C4550E5BB07F21CBA227F16BCA7A40CBCE734113CC584E9BB1CB74D3CD5AC4BBCE52C0BBCB2C7943B4216A83BFEB0C2BBC3D683BBCAC95C3C84A22C3C2CDE3A3C9D8E213C156A523CFDDE8ABAA3B225BC972B283C02F05B3CC55D383C3850EFBA0A23253B3B90533CF6AA1D3B39049D3BF5998DBBB8FDDDBBDC94153C896DE7BB2DA937BAE70C103C3A7C84BA18A4213C79A3CFBA6C3A9BBB62E1193CEDE02ABB2C4C7D3B80C5B4BBF0C0393BEEC008BCBBA6A93A8C67823A019EE2BB98A23B3CD9F8C8BAF88BFC3B2249003B0DE7533C327424BCF569D73B1F1F3BBC4FDCCBBBEC253ABCAAA52FBC05C7463B38FA49BC3A53353C0E72543B7DF72BBC580F1EBC34F8DD3B7252193B2A85CE3B621D0F3C9252023C20E7B1379DF326BC324A29BC07A94FBC1B6E073CEE090BBCE74931BB29399F3A029A503C00603EBC4A2F26BC948B3ABBB8AC3B3C4F95FCBB5C835FBB44C11CBCAA5E283A91D8603BB31C70BB7DF93E3C7AAC7F3BE0B50DBBE3CB8A3B5C58003C88AC0D3C5AE2063C964B17BCCB674ABCD86D8F3B3831D8BBA1BD32BC3DF4EE3B9995B83B5EB1493C1DA1483B1860363C2FFC63BB8FAB123C6E12C5B9D1EB17BC37DC55BC127435BC48AE883B5C59213AC76B9BBB61DE6F3BF3CD8EBB9CC3813B55361D3C3959E1BB93EBF8BB11DEFDBBCF3F953BD90183BBA72787BB8CB9413B82C0CFBAB36A04BC3836203C7CD121BC701C9A3B1C4B7ABB63AC23BA53443B3B6E6611BC9D50063C582CAE3B33651BBC7E320A3C06E23FBB9BCF2D3BB3F83C3B6D53B8BB10C075BA8142C1BB0A8F17BB144B5DBCBE68023C6D9C2DBC965749B970568ABB906D38BC466F213C847AA43B1EECD1BA3AC12E3C8F1FA83BA789F23B6DB542BCD3DA3CBCCF1201BC9AE4513BCE36FA3BD24F40BCE23437BC24547A3B060CF43BB5F250BC5D34F53B1D6A48BC2EC415BCF99D7EBA362915BC11E8A6BBBA2A4DBBBD470DBC039DC2BA"> {alignment = 64 : i64}
  memref.global "private" constant @__constant_2xf32 : memref<2xf32> = dense<[8.409150e-03, -0.00494694198]> {alignment = 64 : i64}
  func.func private @main(%arg0: memref<14400xf32>, %arg1: memref<2xf32>) {
    %c4800 = arith.constant 4800 : index
    %c80 = arith.constant 80 : index
    %c60 = arith.constant 60 : index
    %c4256 = arith.constant 4256 : index
    %c684 = arith.constant 684 : index
    %c5472 = arith.constant 5472 : index
    %c2 = arith.constant 2 : index
    %c18 = arith.constant 18 : index
    %c38 = arith.constant 38 : index
    %c5 = arith.constant 5 : index
    %c3 = arith.constant 3 : index
    %c56 = arith.constant 56 : index
    %c76 = arith.constant 76 : index
    %c8 = arith.constant 8 : index
    %c1 = arith.constant 1 : index
    %c0 = arith.constant 0 : index
    %cst = arith.constant 0.000000e+00 : f32
    %cst_0 = arith.constant 0xFF800000 : f32
    %0 = memref.get_global @__constant_2xf32 : memref<2xf32>
    %1 = memref.get_global @constant_10944xf32_1 : memref<10944xf32>
    %2 = memref.get_global @constant_600xf32_0 : memref<600xf32>
    %3 = memref.get_global @__constant_8xf32 : memref<8xf32>
    %alloc = memref.alloc() : memref<34048xf32>
    %4:2 = scf.for %arg2 = %c0 to %c8 step %c1 iter_args(%arg3 = %c0, %arg4 = %c0) -> (index, index) {
      %9 = scf.for %arg5 = %c0 to %c76 step %c1 iter_args(%arg6 = %arg4) -> (index) {
        scf.for %arg7 = %c0 to %c56 step %c1 {
          %13 = memref.load %3[%arg2] : memref<8xf32>
          %14 = arith.addi %arg6, %arg7 : index
          memref.store %13, %alloc[%14] : memref<34048xf32>
        }
        %12 = arith.addi %arg6, %c56 : index
        scf.yield %12 : index
      }
      %10 = arith.addi %arg3, %c76 : index
      %11 = arith.addi %arg4, %c4256 : index
      scf.yield %10, %11 : index, index
    }
    %5:3 = scf.for %arg2 = %c0 to %c8 step %c1 iter_args(%arg3 = %c0, %arg4 = %c0, %arg5 = %c0) -> (index, index, index) {
      %9 = scf.for %arg6 = %c0 to %c76 step %c1 iter_args(%arg7 = %arg5) -> (index) {
        scf.for %arg8 = %c0 to %c56 step %c1 {
          %14 = arith.addi %arg7, %arg8 : index
          %15 = arith.muli %arg3, %c5 : index
          %16 = arith.muli %arg6, %c60 : index
          %17:3 = scf.for %arg9 = %c0 to %c3 step %c1 iter_args(%arg10 = %c0, %arg11 = %15, %arg12 = %16) -> (index, index, index) {
            %18 = arith.muli %arg11, %c5 : index
            %19:2 = scf.for %arg13 = %c0 to %c5 step %c1 iter_args(%arg14 = %arg12, %arg15 = %18) -> (index, index) {
              scf.for %arg16 = %c0 to %c5 step %c1 {
                %25 = arith.addi %arg8, %arg16 : index
                %26 = arith.addi %arg14, %25 : index
                %27 = memref.load %arg0[%26] : memref<14400xf32>
                %28 = arith.addi %arg15, %arg16 : index
                %29 = memref.load %2[%28] : memref<600xf32>
                %30 = memref.load %alloc[%14] : memref<34048xf32>
                %31 = arith.mulf %27, %29 : f32
                %32 = arith.addf %30, %31 : f32
                memref.store %32, %alloc[%14] : memref<34048xf32>
              }
              %23 = arith.addi %arg14, %c60 : index
              %24 = arith.addi %arg15, %c5 : index
              scf.yield %23, %24 : index, index
            }
            %20 = arith.addi %arg10, %c80 : index
            %21 = arith.addi %arg11, %c5 : index
            %22 = arith.addi %arg12, %c4800 : index
            scf.yield %20, %21, %22 : index, index, index
          }
        }
        %13 = arith.addi %arg7, %c56 : index
        scf.yield %13 : index
      }
      %10 = arith.addi %arg3, %c3 : index
      %11 = arith.addi %arg4, %c76 : index
      %12 = arith.addi %arg5, %c4256 : index
      scf.yield %10, %11, %12 : index, index, index
    }
    %6:2 = scf.for %arg2 = %c0 to %c8 step %c1 iter_args(%arg3 = %c0, %arg4 = %c0) -> (index, index) {
      %9 = scf.for %arg5 = %c0 to %c76 step %c1 iter_args(%arg6 = %arg4) -> (index) {
        scf.for %arg7 = %c0 to %c56 step %c1 {
          %13 = arith.addi %arg6, %arg7 : index
          %14 = memref.load %alloc[%13] : memref<34048xf32>
          %15 = arith.cmpf ugt, %14, %cst : f32
          %16 = arith.select %15, %14, %cst : f32
          memref.store %16, %alloc[%13] : memref<34048xf32>
        }
        %12 = arith.addi %arg6, %c56 : index
        scf.yield %12 : index
      }
      %10 = arith.addi %arg3, %c76 : index
      %11 = arith.addi %arg4, %c4256 : index
      scf.yield %10, %11 : index, index
    }
    %alloc_1 = memref.alloc() : memref<5472xf32>
    %7:2 = scf.for %arg2 = %c0 to %c8 step %c1 iter_args(%arg3 = %c0, %arg4 = %c0) -> (index, index) {
      %9 = scf.for %arg5 = %c0 to %c38 step %c1 iter_args(%arg6 = %arg4) -> (index) {
        scf.for %arg7 = %c0 to %c18 step %c1 {
          %13 = arith.addi %arg6, %arg7 : index
          memref.store %cst_0, %alloc_1[%13] : memref<5472xf32>
        }
        %12 = arith.addi %arg6, %c18 : index
        scf.yield %12 : index
      }
      %10 = arith.addi %arg3, %c38 : index
      %11 = arith.addi %arg4, %c684 : index
      scf.yield %10, %11 : index, index
    }
    %8:3 = scf.for %arg2 = %c0 to %c8 step %c1 iter_args(%arg3 = %c0, %arg4 = %c0, %arg5 = %c0) -> (index, index, index) {
      %9:2 = scf.for %arg6 = %c0 to %c38 step %c1 iter_args(%arg7 = %c0, %arg8 = %arg5) -> (index, index) {
        %13 = scf.for %arg9 = %c0 to %c18 step %c1 iter_args(%arg10 = %c0) -> (index) {
          %16 = arith.addi %arg8, %arg9 : index
          %17 = arith.addi %arg7, %arg3 : index
          %18 = arith.muli %17, %c56 : index
          %19 = scf.for %arg11 = %c0 to %c2 step %c1 iter_args(%arg12 = %18) -> (index) {
            scf.for %arg13 = %c0 to %c3 step %c1 {
              %22 = arith.addi %arg10, %arg13 : index
              %23 = arith.addi %arg12, %22 : index
              %24 = memref.load %alloc[%23] : memref<34048xf32>
              %25 = memref.load %alloc_1[%16] : memref<5472xf32>
              %26 = arith.maximumf %25, %24 : f32
              memref.store %26, %alloc_1[%16] : memref<5472xf32>
            }
            %21 = arith.addi %arg12, %c56 : index
            scf.yield %21 : index
          }
          %20 = arith.addi %arg10, %c3 : index
          scf.yield %20 : index
        }
        %14 = arith.addi %arg7, %c2 : index
        %15 = arith.addi %arg8, %c18 : index
        scf.yield %14, %15 : index, index
      }
      %10 = arith.addi %arg3, %c76 : index
      %11 = arith.addi %arg4, %c38 : index
      %12 = arith.addi %arg5, %c684 : index
      scf.yield %10, %11, %12 : index, index, index
    }
    %alloc_2 = memref.alloc() : memref<10944xf32>
    scf.for %arg2 = %c0 to %c5472 step %c1 {
      %9 = arith.shli %arg2, %c1 : index
      %10 = scf.for %arg3 = %c0 to %c2 step %c1 iter_args(%arg4 = %c0) -> (index) {
        %11 = arith.addi %arg4, %arg2 : index
        %12 = memref.load %1[%11] : memref<10944xf32>
        %13 = arith.addi %9, %arg3 : index
        memref.store %12, %alloc_2[%13] : memref<10944xf32>
        %14 = arith.addi %arg4, %c5472 : index
        scf.yield %14 : index
      }
    }
    %alloc_3 = memref.alloc() : memref<2xf32>
