module {
  memref.global "private" @fc1_weight : memref<48x64xf32> = dense<"0x00BA2E3DF28B9EBD604EF03BC4660DBD34343FBD9499203DC45482BDA47A83BDE0FF76BC400D2E3DF0338BBD800EF23BAEB1E3BD9096853C804419BD50ED8EBD9433E03D9C17F0BD708074BC821088BD60467B3DE05310BD30BCDBBC2E9C9DBD40FE39BBF4CC59BD4AB09B3D8C6A56BD669181BD1480733D688A573D0CEF44BD3849303D5229B8BDEC76FE3DDAECAFBDC07F20BC40F4FB3DB067173C24A4A83DC4D888BDC0491D3B38BB2E3D204B033D68FFF43C248831BD745DCABD7458053DE080D23C20860DBD46D2D73D30A46C3D3831C53C8EEEAA3DEC86BEBD5026C43C0468C83D30172FBC905555BC7015083C8C5933BD8A5AF7BD902DBE3DD03F703CF09103BDF206863D049944BDD65382BD009E183D1CD4973DC245F0BD802A8F3BEE2BC63D509CC13C006A50BC28B9733DA8338FBC706462BC907CF83DE0BF2DBD866E9F3D80014ABBF0ACE43DFAD0B7BD4E6499BD7A85983DECA9683D18D9E73DE09F3E3DD4D2693DE63CCD3D8436CD3D64E06DBDDCDD013DC83E8B3D80E9153B2483D4BD3AD29B3DD0B03B3D7824C83CBCA7563DAC579A3D646C273D805226BBB853393DFEA2B1BD98C6FFBD7E22CD3DBC535DBD9027123D205DBB3CC056103C805A9D3CE8D2263DA098BD3C58DE903CD8F0B13D1CA1E3BDF0C2123C88600BBDD46B213D225FA33D68DB6F3D9C4CB3BD70EB3FBC4077A5BD8EEED3BD7018B5BC18AB88BD28B2C6BDF09367BC0459703DE488B1BD00FCFF3B1AFDE63DB891B63DDE31F83D300D04BCB02E34BD009C2B39EC4A793DD4EE8D3D28A3EABC64231ABD80695A3C880DD83C548ABC3DF67196BDB492493DAEBA973DAAD9C03D04F362BDC627E63D40CB783CC039E83DE610A03DCED8C83DD836973D8CCDF1BD001820BA3A51F5BD1C9F4F3DD431833DF0E4523D727183BD6829C7BDA03517BD484B423D8C8FA93DCC88CF3D0CFE333DD0C7583D6C6020BD9267DEBD408CF63C7E6CDFBD5AB195BD304B093D20D389BDA8BF56BD460AC0BD4065603D9819B83DA0EE713C28719EBD766DFABD2044E73DE65D8C3DC039F03BC098B03B643DA63DB44360BD84FC773D6A71ECBD94E1E03D54ED893D004E143A3CCD43BDE82E4FBD109A77BDF677833D7073A13D207E16BDAE299A3DA089AE3D883B8F3D8084903CAC00D0BD7810EA3C90994C3CF852B4BC38013B3D2CE777BD3877F23C588DBBBD9458263D28C70CBDEC9B1D3DC271B03D44ABE3BDEE159BBD90CDE5BC844DE3BDEEB3F6BD5C6AC8BD105C953C74B6413D6657D7BD8CD02B3DF012EB3D286EF63DE0E6A8BB40A5A0BCD4478D3D249769BD0C27CE3D563AFA3DDCA1E43DE891C93DCA8EC13D0A17863D2EA785BDC0DDCB3DEC3EA73D5C69D6BD14504B3D00F1C23DD061913CB024FABDA28AE8BD687EF43D04B6A93D304BB9BD3C1FC0BDACF0EBBD8AD8B4BD784D2F3D30D556BD4C5568BDBCF30EBD5AC89ABD5CFE66BDD402AEBDBC985FBD4CFC333D4000453B940B4EBDE81BF23DA090BE3BE05CC53DF870D4BC2C4276BD0444493D58D13ABD2034BF3CDECBC93D2AC4F73DDE23FEBDD044F8BDC88EC43DBC0FE9BDC070703C4234ECBD7402A73D10F20DBCF07E1CBDBC36E93D30909CBD7094F93C44A7E73D64BC26BDE642B0BD2A0ADBBD64F3533D40E0BC3B783DE23CCAA2B3BDF82A18BDA8BCEFBD387B49BD40AD623C10A564BD1871F93D4C973ABD2A06B3BD46B4D2BD48DC06BD328F97BDE07DE13D7896B83CDC52A0BDC691FF3DB814AB3D6E94CCBDA0FEB23C4081B1BCC0DDAF3B9A35AEBDC6D7CC3D8A91973DD0A9ACBDB05DAF3CB88ECFBD20BB443DFC80F53DC011B1BCE0CBB4BC80F548BDC045163D4C67763DB29DC93D2027953D940EF03DE648D4BD469ED3BD6E42B83D6C0A9FBDD06B6D3D5CF48FBD40B48BBC1819D63D0C78DB3DB8FABFBC6C5A86BD3A09C2BDA279AFBD2C41523D1206A33D30A834BC5A64E43DF03ABEBCBC7CFD3DD6A5A6BD04E8D9BD48A83B3D5AA1D8BD6C8B75BD64D0893DC0F31B3C807BE83C0040B8374055453C0251F4BD8809873DF053CCBC8018AFBDD0E0653DF87EFCBDCC9DEC3D5042A3BD341575BDF0222EBC86B0B3BDAC5F8DBD9C99103DD625F63DA02980BB9883D0BD10F78EBD580FFEBD00BD7A3AD8ADC73DB29FC83D5277CABDF6E0823DA8F8D33CE0F8E9BB80CA45BCEC49CF3D2A3883BD8AC4C9BD50064E3D84C9FDBD44AF8D3D9C0A9DBDF0E58ABDAC83CB3D20A62F3C444EA1BDA674BFBD005D0CBA4226E73D845311BD782FD23D5237AABD8EB3DB3D048F39BDB03AFFBDD02747BC84A5433D1A949F3DD2E4C53D022ACB3D647E1EBDE0F7183C7E7296BD401A22BBB8D9DD3C549A78BDD243C43D90E53DBD103090BCF411AF3D60BA66BDA6A6DF3D608B963BDCD93EBD3CBEAE3D30AE2BBC88A5F53C52CED8BDD6B4E83D3C7603BD16CECA3D002CCEB914594F3D08A55D3DA01778BDAECFDC3DFA28CDBDFAA4BC3D240CCF3DBC204C3DA62EFC3D2AC1BEBD24EFFB3DF4FE233DCACDACBDB6268FBD3C5FB7BD3E75A33D880F5F3D4429493DC807D3BDEED2EDBDF43AAA3D9A2498BD48454F3D1417333D662ED73D0CE78FBDB8900A3D10A289BC0889E83D649DB2BD2E49D2BD406C2F3CF0F1593CF601813DC4728A3D90CCD1BDB8B3053D2434E0BD98949A3C3A9C9C3D6A79C0BDDEC6803D9E2AC63D003A7D3A260DD73D50D91C3C50A5073DA8317EBDE050B1BB1C9EA23DB867B6BCA820A23C6C99C63D3489F93D30AC7F3DF457F3BDB09671BD660F91BD84BAD33D567CE93D88A0433DBA08A8BD08D634BDA245E6BD800DEC3D548BDB3D809C11BB4EE4B4BD0621E1BD80D6B7BC103DE4BC88EB233DC49098BD7CDE673DA68AB83D00674A3B723E91BD80EED8BC709772BC4623FC3DECEA593D5820AEBCEC35293DA221B43DB4A78ABD9CE5383DE6A396BD404BA0BD2801493DD07E58BC24CDBE3D1E85B8BD2ED7B13D9C12D83D5268D5BD7869B1BCB42A00BDA08B6DBC58D5013D148BA83D4617E7BDD080223D9441F7BD98E6ADBD8AB4F93D1276F1BD081862BDE0A3CABB780823BDFAB58FBD3270A53D4853A3BDB8FB3C3D0891DFBC4AB1893D003FD53B5CC900BDB817A4BC840869BD504635BD907D143C6C11633D1087DC3C30D0B73DFEE1AABD003E0B3B46EAE6BD66E2AEBDBCC5143DD4AC37BD9C9FA6BD808618BB88B301BDAC97B93D903DDC3D6864B0BCC0F156BD904296BC08B0D8BD4091A23B203B4DBCA06FDB3C94011E3D14D7FA3DC071F8BCF66ACABD4A82DF3D60FF89BB48D74DBDA0C7B03BE4F3133DFAB6F33DBC07DABD02248B3D2479A7BD3436303DE0A2B53C88C12FBD745CC43D009A173C88FC843C9EE8A2BDF0CF033C1878843D103782BCB632EBBD00B80EB9F0AE7DBDFEC595BD7C98B43D8EF7A13D5860FB3CE086A5BD72ABD13DD60C80BDEAE581BD4C8E473D180575BD6458FC3D70E7FB3DCC3CA43D7AFA9DBDF0D3F83CC07725BB6877E93DE87CF5BC3C1DAA3D8075DBBDDC8BA03DBA468E3D9C55C5BD30227B3CB88B073D4ADBB63D3822EBBCC0BD6FBBC2CDD03D2C0DB83D0C953F3D3A11B63D2A6BF2BD8274FFBD780BB8BDE096ACBD2818F8BCF62994BD00458ABDCE41DABDC84B3CBD905CCABC1038673D3221D33D24A9B43D88F942BD94D611BD148ABBBDF2488FBDA48B7C3D3E07CB3D70E2133DF0B5603D023D8F3D600410BDCAD0FC3D7043933D18A2893D1404CABD400C2B3DB8D0E2BDEEA2E33DC084D63C4EC7963DFA86963D4ECEE7BD281C87BD44D0BCBD409A673DF091853C0EC9E23D6229C8BD006371BBD8A25C3D4004C83B5ECFFA3D6A25A3BD8AD1E5BD9663A33DC02F4E3D1294D0BDACACAF3D54A5C3BD906745BD88909CBC987D65BDE85EC5BCFC8B353DB072C0BC100718BC30A9B2BC60DB84BC80F910BB36C9FFBD28C1CB3C5A68833D78B5F6BD946F153D5CF3DA3D38134B3D485EE23CE8548C3D400B0CBCC01AD3BDE8BE633DE0C2E73C00C31C3B90D1913C86A8853DF86E28BDC07F853CE00351BD804CF03CF871F1BD72C5A33D62BAB73D5011EB3D102EF1BC005DBCBA107F46BC288D92BDF876F93CE800793D94065DBD86988CBD78730EBD0006753C4C9FC1BD301C973C0088153B70EDB7BC10D493BDFC53E53D583EF73C6AB5893D58E7B5BD3281ED3D5845F3BC4002CD3BE0D3EEBDC07373BD6623833DF0E50A3C00625DBC3834043D5EB0D03DCC6C703DCA16FDBDC8208CBD0023933B8046E23CD69AEB3DC2F9F9BDC2F0D23DB0C7A13C407609BBF0316C3DA48B763DC8CE63BDD085FB3C1CA6D53DCCB1B6BDD47A37BDB203DC3D2C33F4BDE6D1F43DA8EC9D3C800B42BDAC056CBD5824113D30C896BCA835D0BC94895CBD780231BD0260B73DE0352DBD86DDB73D808EFBBC9848233D70428DBCB87D8B3DE47B013DA02C5DBD3877F93DF087523C8A53BA3D8C1332BDF8B2C33C6661A83D0CA49BBD48A59C3CE25AAEBD648B0CBDF8A58BBDCC4348BD70178BBC5002EEBD20923DBC1EBFDF3DDED7FE3DC8F6FABC08D7CDBD146B42BD52D8E1BDFCFE4B3DF4F91FBDEE9796BD70CB78BC2013223DECBDB1BD30DBB5BC585898BCF44C3EBD3A0BA5BD1A378DBDC8F87D3D44DB42BD0425DBBD18CE693D34186B3D90E18D3CCA30F23DACF1BCBDC09D033BDA4AC13D5E73C9BD0840CB3CF8067EBD8840883CE8619A3DCCB0F43D8020A8BAE4341DBD78AA63BD608CC83C1AADE8BD54D76DBDEC11973DF06A10BC1CC6DB3D2C157B3D5CAAE33D6842BABC7040AD3DD662D73DECCB35BD86B8FC3D58DBDB3D3012FC3C582D963D9293A4BD2E709C3D128ED6BDA2B9A43D28C4763D6A11C23D8078033B222AC5BD3C213F3D10BBB3BCB00A64BD8435A73D5289FE3D98B46DBD9C084BBD88A7B83D80C87ABB5C45DD3DA8BDBF3D7411033D6613AD3D140DAA3DD87BC23D80121CBDBED1EEBDE8A4B6BCD6C6BF3D068ABCBD14AE653D404D0FBC501F643C28B6CABC5ED4DA3D40A9F13B306AFDBDFC2BB93D1696E9BD38BB413DA826BC3C1020933DE054803D54361BBD48E09CBCC4B8F33DB4B6AB3DE843723D24B7BABDCC6EE13DE80AFCBD0C28763D04EA2A3DDC2DCABD6C0152BDC011C2BD90D3C23D0C5F9CBD2228A7BDB0261C3C9237FBBDD8CCE5BD60836E3D504F32BC9859CB3C30B1493D747CABBD928EF8BD5EB8E2BD203A5EBDDCB7ABBDFC823BBDD8B2093DF09B6B3C2C3CD83DC62EDBBDD0788EBCB0ED7BBCC09E8B3BA0DD3EBCACECFEBD40D958BB204A043C88C6BF3D78219C3D34E6C03D583497BCF4B2793D1629933D2047853CF87E2CBD5854F53CE200A03DB264A53DD025233CA42AF8BD7E8A89BD4471073D14E7E4BDA81FB3BC10CAA83DE890B03D16569ABD22E9DDBD30F88ABD3486F0BDD254CFBD04703ABDA64D863DE2ADEA3D006B083C6038AFBD408F663DA86ED53C5836E9BCAC71C83D48CF943DF687DDBDE23BC7BDECB9453DA8FDE1BCD0FC77BDA436DF3DDE24833DE085DA3C26D2D83D2EC1CB3DB0B8BABCA4AE2B3D5E32C3BD5C4CB83D20DCDABD384665BDBECAFEBD9415373D14BD40BD940875BD584CC2BDA8BBBD3C1842D23DCCF4D8BDD03FB73CF8055D3DE028603C5C17873D3084B33CA0C384BBC059623B408A383BCC873DBD384C6C3D7CD2EB3D167E96BD5408A1BDA8ABF2BDF01374BC8CED7FBDC233A8BDC0232D3D283B75BD60CC81BD40FE4ABBD4AAB83D701897BCACDF7D3D382ACCBC04D67FBDF0A6783CB00A653CB07C7BBD3EB9C0BD8CDC17BD8059943CE0BCA43C04F25BBD50815D3DFC14D33D8021F83AE411EFBD6079ECBB985FCF3D0459703DFC9AFBBD20F35EBC348DCDBD64504D3DF8498E3C60A2383CF6ADE8BD0058F1BD8EB8E0BDF8F5033D70AC083C3893EDBD9A73B4BD34649F3DAC0D57BDC825FCBD00391D3B3AC8B0BD80B9E8BA1CD3663D44F460BD9E1D8B3D5878EEBCD02D7E3CA8CAE13DA47F1DBD645E09BD0C239E3D488D543D8073E9BBD017C3BC5225F1BD08C0D4BD0014BB3C88489E3C5C1FBDBDD8BF9ABCF6ECB3BD00278BBD4895FABD8EC0B73D00504FBB40BFCDBDD0C92DBDE052E53CBCE0103DE8DE94BDFE39A2BDA804F6BC4456ED3DE0ABDABBEA59DFBDD0FF4ABD5E6F8C3D204042BDCEE4A0BD1CD7CF3DA059EABD4669873D4244B83DCC5568BD4035E7BCA01CE8BBB01FC5BC18EC62BD227BA63D64B0283DFC2728BD90F5D23D9C6C643D3E28DD3DD02995BCA0D7AFBDEE5B83BDE2D68EBDF486883D8CC5243DCC74A6BDA0E4F8BD3A68C53D38CDFEBCAC4CF8BD7C3FBE3DB239933D00C7143DD0BA2C3DA21AB33DA0FBDE3BE4E6CC3DE0C6FF3C4875F6BDE495E13D461EFBBD52AC843D80D4713D500014BCBC3CFC3D9C6C54BDACA6D03D404B8C3CC4E517BD5EDADEBD6CA6F7BD64D4B6BDEA90D83D5E9793BDEC73F93DD0C9FABCA084A0BBF40AC3BDE231F33D2C0E80BD7ED4EC3D2455C9BD2663B4BD3677C63D304AA6BC1CE40FBD3EBDCB3DAC1D8ABD42DDE93D4C055CBD16A3BDBDF0F4FDBDFC13D23DBE9ED33D744CC43D88C0B13D188FDD3CF49067BD4CB5E6BDCCEBAFBDFC62D43D1040503CD088233C003C943B009A5ABB3C51D6BD7846E7BDC023EFBB344B6DBDD011C73D00E87EB98079EBBA602BCBBC6E09BD3D08BA92BD5839BC3D46A6F0BD28CFBB3D3215DA3D9C48CD3D28D78F3CC07A0EBCBAB4FDBD4044773C804181BD02FAD7BD80159CBB50B2E73DCEF3E13DD010233D5CF54A3DCC328CBD4049C63B44AD383DFCA131BDF891A1BD5826EF3C12EB9ABDEE77B6BD30F0853D92A7E2BD829EE8BDE02971BD7C8A683D80C2C43B826CCDBD5463983DF8CA343D44E13DBD8CD7DFBDC222F23D6036133D9032FB3DBAEBC93D6EABE03D1049AC3DDCFE41BDC4734ABD90DC8B3D1CF8E13D10C9C83C2C6D5B3DC0AFAE3C94CD81BDA0FF973BC8DE8C3D40C54C3D7654953D8CE9833DDED5A03D6864A53DC4774BBD403E2BBDC0D35F3CA08681BD84B880BD0E9882BD68C9B9BC705B703C50FA913D24A0603D4021023BA08EDF3C8E4DD3BD3066903C12F7B2BD1A2CE1BD74FA08BD906D64BC34A94EBD005FAFBC7C287EBD5E92C53DEE1AB2BD5EA6B93D8085AF3B820DB5BD82FF823D164B93BD407F05BB0C95173DFEDDE43DA0E34DBCAEF7CDBD2858A7BDD432ED3D2CBF3F3D044AE9BDC819503DB0F5DC3D5429B5BD5EC587BDC0C72FBC00478CBC5C36F83D10954A3DA0156EBC0C3224BDB840E53D0089CDBC9C67D83D6AF8BCBDD45356BD3EEAF5BD102FF4BD48C8AD3D60494BBD98FE58BD70C6B13D206FEE3C4CE991BDF69D8B3D384CD7BDD8DBB83D9CB1E1BDE00563BDC8C14F3D7A419CBDB8EAC83D60AA143C20928A3D40AE8F3DDCDDB5BDB84B91BCE080953CB4961EBDB420C93D8088723C1609BBBDD41BDEBDECA603BD92EBBD3D58E810BD80C36EBDACE763BDC47552BDBCE10C3D58378CBC0853B6BD704EDB3CD0A082BCA014E63BC253B0BDCAE9B63D4A3BF9BDFEC484BD30640DBC904776BD00DADD392093F73BE8BB9CBDF4C5A33D1612F53D26B887BD3C0F1EBDE6E5ACBD3894DABDF64381BDE857363D30A2183DE0D149BC5C4202BD00A114BA80240E3D5ADCD3BD3A45CC3DC8C447BDC2F5E0BD74B335BD4CFC5C3D18B8AC3C947E0ABD1C1AF93D84CD5ABD421ADF3D162CC2BDC89A1C3DC0791DBC30ADF83C1AEED23DF81606BDF836E13D983C91BCA804E13CCAACDBBD809325BCBCABC23DEE1D9EBD10A280BCB8371CBD503D353D5E32EF3D048A4FBD364A99BDB6FCD0BDF0BD2ABC783F82BC00CD2E3BF037A9BD38CD413D8C7C043DF08B573D90F4ADBD78E483BCFA92B93D2A6A873D98338FBC967DFFBDDC97A93D32E6E2BD5834E7BD9E548F3D28A668BD84DD3E3D4056453C40E547BCC250F93D60E5C43CD06466BC1C62463D184BC33D7C5A853DC2249BBD5285833D001769BB2A81C6BD7A579C3D9C59373D5082033D30AABFBD80C134BC4037ECBC70F25B3DF0F91BBD8C4FEDBDF020043D06E48BBD94E7AE3D5AACC33D40A132BC443136BDBC89443D16D9803D7896763DFC1B603D2028C73B3CF7E73D503B7D3C14E3B9BD4001ECBC404A833D5EDADABD245379BD5422D9BDB2DD83BDA4C253BD988EE53D7800CFBC40E726BDBC91433DF09F3BBC38B4C3BC80289EBA20FDC73CFC5913BDFCA34A3D124EC4BD8047483B188987BCE0E8F4BB1407D5BDDC517EBD18BDF5BC80F39D3B1EE3F1BD3C56EE3D9C014EBD0075533B0432B7BD30B8C5BC3CF1973DF6E4B23DA09B373C407BEEBD7A63D5BDFC4832BD54F27EBDE8CFADBC40A6443CAEEAA83D00D16A3C9427E3BD400A22BDA286C23D7653AFBD200C183CBAACD0BD440D3ABDC0F1DBBB60B6443C80505F3B9A37F23DD07EC3BD884BBBBDE0A56E3C40152EBB902C77BD9015663D32E8C0BD981665BDDC94933D40BB773B308788BC081A3FBDBC731EBDA43EAF3D4057F93DD8C0A43DC0B6D8BD80EC18BCBA4DF73D10D740BCE814A1BCE8AB2A3D903AE53D18EA8B3DF0C1243C0C905A3D90CEACBD740CC0BD08F8F0BD0004CF3DE877913DEEB09F3DF485B4BD7CC464BDA865E93DAEA59E3D3E95C33DB0EB373D582DCC3C8822763DC04E9A3D08D3B5BCCAACCF3D98BAF83CCC1E863D4230943DDE42D9BD40EEE4BCB04FDE3C6E02ABBDF203B1BD8067B1BD10F29C3D783F4F3D789BA83DCC53F3BDFE5FE1BDF08C97BC4EEEAC3DAC5704BDB8F5983C40A119BC74BBC23D7856C9BDC4514B3D04B4A13D5EB9B63D20119F3D80E7C33D8432CA3D40E5433CB697E63D8E4CD03DCED7A43D08E192BDE0EDF5BC00C3F33C7CB4013DC025EB3D18A0D93CE8B69DBCC43D6B3DC4F7FB3D0020ABBADA6AA13D2C34953D1E04843DC0F6B83B4017FFBDB06D723D0046DE3B08BA483D20E3FE3D500F0FBCF86CBF3D902EB23CF246D9BDC4D00CBD08E93B3D008960BC80B1EBBD000C5D3DB630AA3D0464353D5CA60FBDF46A5FBD20B850BC7C5C173DA0F3D4BD907E09BD98B8FB3D1C3755BDC0754ABC92DB933D5CE8953D6081773DC43A8FBD7892CE3C543F9EBD8429D63DFEB19E3D220BAB3D9CFB633D1CD909BDBE3AA23DB880B63D38489E3C00B401BC5815DFBC3C995ABD14C7D0BD5A00A53D98233A3DA8ADC73D782DACBDD8C07CBD1084D33D8836C33C98AD543D108F5A3C50E2B23D24281ABDBAE08BBD36A4DE3DBE4AF9BD02F4C03DFCB83D3DC85F5DBD704547BC9076F83CD0C8FFBD3C6D8ABDC27AE6BD781CA1BC2E60C23D52AFCCBD70F5CEBCA8C83EBDE0B6C3BDE48423BD20ECA0BBF06694BDBEB0A5BD8CDADCBDB09C65BC4021EA3DDC2314BD80FE053DFCB391BDD8A1AD3D9C8972BD5E0DEE3D60D5E5BC04D090BDFE56ADBD40BAAE3B44ED523D5C74BBBD4C9CA8BD5442CD3DD25EBDBDF43CA3BD1C06C3BDE441BBBD6823BABD0E2E8CBDF889383D903DBFBD8E74883D728E84BD22E2AABDF244BFBDA2D0C3BD0E15A5BDF87FD83DFCB5B0BD7ABAB1BD10136FBC944153BD881CCFBCC05BF3BD4CC2853D98F826BDE635BE3DF889A8BD9C4E553D36AF863D9014F9BC2C5C653DD29AF63DA00AEE3CF29580BDF02E67BDA8EDDF3CC09B62BD80371C3C582044BD889DB3BD7E2FCE3D40568BBB72ADBE3D2C31B73D8A558E3D78EE643DA2A2EF3D88B7D4BDF061A0BDC050F13C988CB53C0EEEE2BD70DD37BC3E0B8E3D082630BD8C93D33D8CE2E7BDA4F454BD68BBE8BD56FF983DC0014D3BC03C8D3C408A66BC76148DBD604EA3BDA47B573DAC162FBD341EF1BD90B365BCBC43F83D00CC23BA40C0A53DB2D387BD587A40BD6042B13BC0AD12BD180E953CEC4CDBBD7E5ACCBD8CA20FBD009BCFBC0C833C3D603F1EBDE0E4A1BB4096BBBD04DE13BDCECE9F3DDCD5993DEC02F13D3E9190BDBCFC4B3D56C9963DD040203D8A1CF2BDA0FE893C4C8F0E3D3E6BC13D984FC3BC621AEA3DB8C03A3DFAA9E4BDD892873D2636DABD2A91EA3D580A9E3C9215C2BDEACEA23DAC5EA73DEC3E6E3D0049E63B6E9FEB3D94B6103D4A0F8F3D24FFDABD906BD43DDCD1B6BD16C3DBBDFCC363BDE2329A3DC85A84BC1CAB103D6C363EBD16FCCB3D10A954BCEC2A903D5C41EFBDC42968BD785C1C3DD03DC3BC609ED73B2A6CE3BDA0A5FF3BC43D733D4E14963D8C366E3D2003B0BB5CB80BBDF875F93C082BD13C8AD1DBBDC023D73B58BCD83DE6E2BD3D3097943C407AFB3BF03ACEBC68A1EDBC60EBBB3DC82890BD70A0B43D946D26BD6275923D601C473CE232923DCCFA10BD749F39BDA0D62C3D9EB5C6BDB4A0A9BDB228EBBD02DDB4BD48EE1ABD2EEECABD103942BD200E023D7407093D12488E3DEED2BD3D10A166BD7878D53CEA5ED7BDCCBA73BD8A1CAABD287D55BD4A57B1BDC0C9093D800BCDBD90852EBD8067853CC860DEBC1A94993D8A3BA43DD801843D5899DEBC7E8FFE3DF09F413C782B8E3C7EC59F3DC483D73D30FE5B3CF0B893BDD0EF263C18C7D8BC20BCB0BBE05E82BB3E2189BD909530BC00C5A33A1030CA3C108E5CBC66E5D6BDD865B1BC303551BD708542BCFA60F33D0EE6AF3D42BEE83DE6C4A5BDACA3723DC4B612BD9448B7BD88F6F0BC6ADD9FBD142DA5BDBA44C63D96DCB63D30C9FF3C709C913D58FEEABD7CBE5B3DB8E5513D528D873D805A8D3C781B113DDA83F3BD5AC3AD3D803B1ABBA0D9D63D48FA15BD40BF12BD9CA2B9BD884286BD9C269ABDB0D6D53DDC72FE3DD4D24A3D40314BBB56F5A3BD80DEA0BA0233833DB84DB43C120EC53D4077D33CF80D233D6A13FE3D6ED8C8BDFA40F73D00A1E43D5087243D86F4B63D964ECC3DEC60B93D14EB0FBDB8A90ABD1834173DA8BDDABC92DE953DD640F1BDCCC3A23D8023B73CE0E41CBC1855023D9C6DB73D548AC0BD4650C33D003D0C3B929EE63D803D273CD43172BDE0BD0BBD90BAA73DA417C63DD478D53D001EB13C5814833CC4D0E1BDB6BDA4BDE498583DF00F1D3C703A4EBDA255CDBD4E2FF63DEE72F3BD501C9A3CAAD19BBD203AD5BCE02E76BD2A21FD3D784F78BD40595FBCBA528DBD90D1E13D80CB61BD1C8B72BDB0BA173C78A2F03CD032F4BDC8B594BDC06EEF3B06E3D5BD44BBEFBD1EEAE13D90C5DB3C52CBC33DEC4D3DBD707587BD586BBC3CB073933C06CC853DC082EEBCFEDFB03DD875B33DD681A03D409E06BD64C224BD20830D3C4030FF3B785EA9BD60EABD3C18408FBDC09FC8BDC24B893D389A94BD18B0D7BC5295AFBDCC2396BD528DE9BD14B330BD5616A33DB089B63C28F0F2BCC86D7C3DF062A03C783E2BBD300BF2BC206C323D8CB789BD7C0B50BD00BF1A3CDC4C763DBAF0ED3DA06DEF3C22B1D2BDF03D0B3D542EC7BD1C6DB0BD00290C3AB6058FBD62BB9ABDC03A1E3DC0A820BC809A6BBB24ED393D10CF92BDE8F7DCBDF296E8BD52E4B6BDC0225D3B90B4C13CA07ABC3C9280813DC0C983BCB0B66ABD504AFA3C54BFB1BD00AF01BAD81473BD62C3D23DE2EFC93D104A55BC406920BB364AB13D0096C1BAC06F77BCA8CD6CBDB07875BCAA3D9EBD1AADF93D3CE2A2BD82DDEA3D52A0AB3DF0B5DF3C7806D03DD0BE47BD44FDB7BD48D4DABD4A0BC53D0E99CF3DA4CBCBBD4C25DDBDAA588F3D90A8F3BC707D133C9C1DA3BD109A14BDDCCE173D6258C13D5011A6BD98DF9B3D8040D1BC0092CC3D3E97F5BDE8E2823C1CBE713DB034ACBCA07D583D926DFF3DD086DC3CDC1462BD7012AE3D90572ABCFEAEA7BDD0B069BC927EDE3DF035C73D00E515BB602814BD444F473DF038C8BD6A25AABD0093103CB270A2BD9859DE3D786EBBBD1C7625BD70B5813DC6DEC8BDE816FA3DE8D44BBDF082AE3CD279CA3DBC4864BDE8CCBB3D3004EE3DD4EB153DD0C53A3CF662F7BDE0317ABD409C503C00B1EA3D804DCFBC54C4CD3DD0EF313D022187BD16B0C03D2023E2BB00E85C3AD4BAB83D9C2D49BD70FA6F3DD0F7E5BDF08CACBD900AC23C800C1C3CB022193D96CB9B3D5A57F9BDD4C89C3D1CDA6F3DDEAAB7BD009C5F39408993BCEA42FEBD0AC8C93DD4CB2EBDEEFEF53D56BC9EBD6805E53DB486FABDC09901BC2892D73C480CCBBDBC41DCBD58DF8E3DE273CBBD506998BD682A573D589BF0BDCE2BF73D4C5F313DCCF3503D4CC6703D6CB43ABD5C3785BD94C3C53D1EC8A33D44D77B3DE26CC5BD1CD4D43D00BD25BBC62599BDCCB9F53DE47CACBD884DB93CF0DDC7BC8828FCBDC014A4BC3C1C74BD009045BD90A19ABD400E35BCA66FA43DEC71EBBD62E9BABDFCA63ABDC45B463DE06994BB0034D23A30C9113CB01FF03D109CDCBD68F3F0BCE86B5DBDA4115A3DCC0848BD306409BC6833D4BCCE91EF3DE05428BD22808A3DA4FBAD3D38D6853CC45A3B3D8EA6CB3D2EFBED3D88061D3D48004A3DC821B73D842AA1BD8E6BFA3D6CD1B0BDE02CDDBBA02C593DE00BFE3B409A8B3B1CC1B0BD4822C0BC6C9B5ABDD09B433DCEC3EB3D80FD02BBD472D5BDD05ADEBD12C7F53D480B95BD40F42BBC80A131BBCCA93F3D2C6677BDC6D9E63D249D5DBDEC33993DA040533DFCE392BDAE2DAABD7426AD3D0085C0BB18F79C3DBE8DBBBD809566BBB60FBD3D809DB3BC0E23CB3D0455DA3D081CFD3C64B343BDB2D8D33D18743D3D004300BC102588BD203FAA3C686C823C0EE69DBDB493303DC668CD3D90032CBCD222AA3D9C550E3DA0D4CDBD6A15873D78C242BD92F486BDC83FA1BD20EAA7BD4029C63B608E8E3BBCB96C3D00344DBB3A24FBBDD81B13BD9226C63DC490BF3D7E3AB73D84E816BD409C773B903F63BD00226DBC6A79B73D967ADEBD6C9A76BD789356BDF6B3C4BDA844353DECC29E3D4C1A0C3D2ACAA3BD74843BBDB6919DBDA04E18BDC8F6B53D8E74F3BD5AD2AC3DD80217BDE0F7ABBDA0A2D53CB891383DC09D343C14F574BD2492F7BD8A57AF3D28EA2A3D7C27363DB836BBBCB0A611BC0039433C54C7CBBD7AE7D83DB09A0EBD80EAA9BC52C09FBD042CC03D404ABF3BDA4BC4BD58CAFABC5A4CEABD7093F4BC60558F3BC06509BD488FB93D248950BD8C2E96BDACA4603D00574E3C7C525DBD3632EF3DD073943C94E0723D80BE8FBA6404E03D0C30ACBD7842D43C90698A3D0418DBBD28E519BDA6EDD43DA46256BDD8E9813C1C26E93D707296BC7060E3BCAEA1B43DEAE9ECBD7416AFBD1025243D80B624BB6068B23C2273EEBDCC7B143D40E5813B08C205BD000AA83C4EEAEFBDB87734BD503FA2BD781EC43C084EA13D7AC686BDAA13D93D541DB03DEC9CEFBD3629DFBDE0C3953D70297A3C38C6DCBD18B98F3CA2A7C9BDFC9E2ABD00D29DBA00EC063D3C36543D3455F8BDEC6A0A3DF014E73CBE25D13D32C49DBD9270D6BDEC3E9C3D90ED623C5CA8BD3D0643B8BD02E99EBD2E5CA43DE0C177BD783D973C72C48B3D38BAEEBD900B7DBCA6C8C1BD747788BDB8EEA33C1CB5A33D5C59043D2E49D63D7086293DAADCC23DDC175BBD3072363DEC6EFF3D240FF53D7C92023D9C5ED3BDC078B63C4A9F943D10A103BCEC8398BD00DAF8BB98D540BDD01D67BCD253B63D40220DBCC8ECADBD5A98D7BDBABDEB3D80D985BB6084B9BC48B0FF3D8A37F6BD18B1C43CAE36CFBD6E2F943D5042DB3C509B32BC16D9AF3D5CC2983D4025B0BC3C19D63DD6909BBDAE5C9CBD2C821C3D648E5BBD7A1AC23DF207EBBD28768BBD0C85173D200A96BDE4A72E3DE85CC33C76EEF63DDCE85FBD1A25BF3D4610883DD049BFBD6C37D83D0AE0A73D006528BDF8D098BC00CD89BC001800B9B8EA28BDCCB330BD402D2FBBCE38B1BD207D05BD261CCEBDF883DA3CC003D43C98F4BDBCF4F4C6BD502A82BD38EB253DFC7428BD60BC583D52CFEE3D1CAD87BD403844BD52E9B83D34AB95BDD2F2A2BD7C547E3DA8C78BBD40760C3B30EF7C3CA8DED0BD2C84C5BD9CE7503D885AC63D7060793C702CB9BC202BC6BCE053D6BB781E9E3C445F8CBDAAED8BBDFC98EC3D98F4963D52D08A3D04A62ABDDCB67D3D5C351EBD4C84083D7C2B23BD70AEB03D94A5C53D3C734C3DBA44A23D6876B53C549D0EBDD0CA6F3D7084A63C5E649FBDD07475BDB4E1873D4851A03CF017B5BCB8F7363D28E9DEBC50AFDBBCDCFDB63D0076C43966B8E43D10FB873C00BA78BD7E06DBBD24990F3D8AB0F23D7074743C886052BD7EFBA93DF659A9BD7430083D8077DC3C64000BBDF8B43B3D6CFD523DC0C8E63BF0813EBC6039E0BBBCD1F03DF05922BD8439F53DCE44993DB01F223D748FC93DE442303DC04C703BD081053DAAEEBABDE00DF23C5CDD1CBD401381BD00DE0E3CE0C6E03B74EC763D76C2CDBDCADE91BDC0B2A8BBF681AABD20F3A2BDFEEDE93D9C4FFDBDAC7189BD44DCDC3DC058BEBBF81CA03C94E1AEBDDA8BAA3D064A87BDC0F6973BE0F40C3D0474723DAA58FA3DEA81A93DA0126E3D30C029BDEE359B3D041CA2BDA0BE27BC7204E23D3C44EF3D8879CABCC4A5363DC0545D3D185791BC94DD873D6C4E9DBDEC73AE3DD84E523D90C7393CC242E5BD941F8EBDA89396BC3298B93D94A26F3DA02FAE3CE2FADEBDC0C2D8BC123DBABDB05FFFBCC474963DB01BFA3CCCF682BD4676EA3DCC92E8BD7036D5BC4E12B7BD44340E3DFCB31A3DE26E9A3DBC39843DD2B0EBBD3C7C983DB420573D18A1013DA8CAFA3DAADFF0BDA0B7ACBDF8E71CBD0039303CB496553D92BBB53D6044F53B44260ABDE043B53B1884A3BD10EAAC3C0059F43C2094B9BB006DE6BD44BE6DBD506174BD58B45BBD42A9CEBD402CE73C4CDE923DBE11B3BD0067FDBC04265A3D2043FEBDF8A738BD9251EE3D4011843CA4BB88BDF857913D4E09BEBD462ED2BDB41662BDD0CFA1BDE44E79BD50BC213C4C2102BD420A9BBDEE76CF3D94B7F5BD143D69BDE0EE233C8835B93D988C193DA40AADBD36ECC6BD10FB233C604B903CE2349EBD2CA4253D6EA695BD282694BD12DC94BDB0BA55BD8C0E2EBD7447BDBD404F3CBDD818ECBD749DEB3D7CE1AC3D408B0EBD6840B5BD5E85B33D303196BDF0F3083CE032A7BC40B2F8BD023EAA3D908FB0BDC0DC363D560DD93D92D2DEBD70F8AABDE86F49BDD0582E3D18F3E83C0E28D0BDD023E5BDC0C593BD263E9A3D5858DBBD605ED7BC149CA3BDC04046BB4E7881BD9A59E2BD942ED6BD3C89B5BD5CE706BD9A12A3BDCC77FB3D7693E23D7AF9BC3D58F00C3DB2ADAA3D0E4FCBBDB47DF03DA079EABB187ABBBD30099DBC5036853D00A4B9B9F889DB3C20322A3DCC44153DF85870BD50D881BD0C3BC2BD5E7DA23D9E23CFBD2E468CBD542D13BD2052613C90CB703D707B493CDE19CABDBC10343D4427FD3D2C55413D0064CB3BC0179BBBF67EB0BD2042893B52409FBD80E5E2BBECC6DCBD301CCF3DDC6B9F3DB87BE8BDD03D54BCB444283D0815AF3D54FF733DCAEBCEBD2020E1BB3EAC823D94E63B3D401CA93C7810DBBC8067EABB400460BDB4DF71BD80B6B0BD7070793C2818493DA6C6FE3D90F0C93DF40F56BD105C06BDC061BEBB6821E0BD409EB9BDB05FE3BDC0B43BBC884AE63CE06D57BD00044B3C822BB53D68FDD33D1A34E5BD382D673D58D9FE3DD0A66B3DF8EBC1BCF8648F3D00EF1EBBD805063D2CB357BD2416F13D3ACBE13DD0815E3C4A8B9B3D2093F5BD707D58BC668C97BDCC3902BD00A80EBB186395BD14C59D3DFA73C1BD4AC2CDBDB83856BD3885D23CF6E39EBDC677CF3D16A7FF3DC63893BD6AEF863D1660EFBD8E33933D2ED6EF3D28B0AC3CF63C9F3D1498AFBD6CB756BD789CBA3C8063DC3C2C39E13D7220B03DF839E7BC5832CDBDA0521F3C0499CFBDF820B8BC806BABBBFC49A2BDC268A53D88428E3D4CFC01BD00A377BBBC48AEBD1655A5BDF09F08BDCCFFAE3D1AFFF53DE0C899BBC8EFA5BC24E2EA3D8C9CDCBD68FDB7BC00BBB53C841A8A3D2ECCE93DEEA6AFBD0A96A13D305B103D9447C7BDBA18FD3D16A89EBD10B5E5BC40455C3B8855A93DEA3FF13DEE1AF33DA829F33C1413143DB0CD3CBDAAC5C03D72D6973D40D4F03B6881F0BCF0DDDF3D804570BDE689EA3DCA80E43D3AF6E4BDCCF86C3D60C5F5BDC6058CBD80B20CBD909B83BD9600CB3D201A95BD8076333BE0FFC2BCFA4ED8BD80C9EE3B7C2FD1BD0028B4380A5FE83DB4D41BBDD29F9EBD86269FBD6A94DBBD36BED6BD70972BBCC06083BDD028DDBD70D3843C2E82BCBDEC87823D54C4D63DA00AF2BDD2C6C5BDF07CDABD18C5A3BC607EFD3D80AA113BC05665BB1AAAAE3D108BB63DDA08833DB295AC3DFCEA7C3D2C390A3D30FB4EBDA231DCBD20F8F9BDFCB22EBDECD85ABD56AFB23DE0A2F0BBD23B92BD62FEEDBDE0650C3CC8844A3D22AFE0BD42BCC93D205CCA3CA8599B3C008798BADCAB8A3DA01B2EBDF8AB25BDEC8ED1BDCE5C96BDCECAA5BD6415AABD7013EEBD4A92CABDD8FA39BD5014943D96D1A6BD9A089B3D1EB7E7BD68EC763D70D5CDBD04A2523D146984BD4C2AF3BDACF851BD06E6A2BDFCC3C03D4040DBBB5CA5D13D082DB9BDB870F63DE086B43CB067D1BDC2BFE53D001B963A8CE2193DD83457BD60078D3C60377C3C48AEA3BD887E8FBD18EACDBC9092A6BC1A74B5BD989CA93D880ED83DDC95D5BD80EF21BBEE8C833DB40B4E3DB0979FBD8081DD3D7024A63C8CE1333D38F79E3D4ABED8BD00DA97BAEC2C32BD3886E83C04EF483D6CFB21BD6CA4463D1CF624BD986C2ABD24A0FB3D28DD46BDB099C73D54994D3D60291E3D969DFBBDEACBCB3D6C59993DE0F83BBC4494423D9ECA873DC05810BBB46EB5BDFC15693D101E063D0A94BBBD241B3DBDC8F995BD6C0C803D3AF59FBD9491983D521AF8BD18C6743D147FD3BD58CD04BDB8FCA1BC1090A5BD70AD823DF813AFBD8CF8003DE497D1BD106FBBBC406C8BBD9C3324BD00925C3AC04D993C0068693CC011ADBD4ECAE2BD2CE3183D2E2198BD0056AF3B689B77BD5A09F23DC05EFCBB38CF593D14065BBDE25BC93DBC5028BD9671DCBDC4B94F3DB49417BDF4DE96BD280D0E3D0602C5BD083FBE3DE031CDBB0081FC3C0868D83DD44E63BD206DBC3D20B61A3C08662A3DB489E33D28D4AD3CF837E83CE000D9BC28105BBD2AEC9DBDCCFEA3BD2007F9BD7080573D0099CEBCB0CE0A3C60F2EE3C58FB39BDD446B4BD7ED1AF3DB42B49BDA8DB9D3CEE71D3BD92BE80BDC22E803D7CAC483D3819193D2EC4DE3DA4EAF73D4457FABDEADEBD3D5E58FE3D78B6CEBC681D25BD006636BC2EB4DDBD90459FBC1021BDBD741165BDE00F1EBD56A1F9BD60836EBC2E1BF43D442694BD30A000BDF8CFE93CE4F0AB3D40E93F3C5C100CBD943C9A3D384CF13C1A458C3D18CBC8BC002A60BD447667BDFA9CE53D808132BD181EF7BDAC30613D0E858FBDDCCDA0BDE63EAE3D5459433DE633E7BDB8111CBD4080263D">
  memref.global "private" @fc1_bias : memref<48xf32> = dense<[-0.0569699109, -0.102850348, 0.0185823441, -0.00131945312, -0.00640206038, -0.0320803076, 0.0864884257, 0.0830468684, -0.00899986922, 0.0425560921, -0.0948225409, 0.0720617622, -0.0553741157, -0.036474511, 0.0998139679, 0.0864732414, -7.156360e-02, 0.0466404855, -0.0178492367, -0.0386884063, 0.0478180796, 0.0573414564, 0.00806626677, 0.0127385855, -0.10999763, -0.0200694352, 0.0407896042, -0.116886392, 0.0734545588, -0.0993919968, 0.0898884832, 0.0541021377, 0.107126161, -0.0520295799, 0.0958060324, 0.0589239895, 0.0599586368, -0.106366917, -0.0136770606, 0.0553732961, 0.0499432981, 0.10295476, -0.0568168461, -0.0909318924, -0.0266961753, -0.0272304565, 0.119340941, 0.0507270545]>
  memref.global "private" @fc2_weight : memref<4x48xf32> = dense<"0xBD45C4BD15CBB1BC2929ABBD56CAE73D04EA563C161EF0BC661DBBBD2FF01EBC4AE875BD16BF06BEA440F53DC59D563D5BB1B4BDB5A18F3A5339B83DA992DC3C6425893D4E2E093D9F45133D48D692BD4EBA4D3D85EC53BC5FAFB5BD5B3462BD6836EE3CEAE0183CA7E575BCE484C0BDE70908BEA46E12BEC21309BE34740E3EA8952B3D3CDD9B3D2A8289BC3FB5A73CC748E73D6F8A053E67D382BC24B809BE754EA7BDC11F4A3DAC98CA3D44A5BD3D86B6ED3DF79D1DBD1F7465BDF3C7053ED2A780BD426FB23DC0593E3DE7D0E33DC5D0CDBCCD3C47BD3A05823DC8DF023D890A87BD47E7C5BD5D07033DA608A1BC17ED2DBDDF4E80BDD978D7BD2D11A63DE3A6943A43B5A8BC36D8FE3D54E5913D46DC613D7663F53BC004693DE38E403D239061BD7E251BBD8E5B063EA6E9183C25AEBD3D0A80F23D2568ED3C7435F73DFA3590BC32F40FBC310C44BBF3A012BD88860FBEDBEF11BE7B94E93D0D11FDBD8478403D6588133EA9D4913C6F4CF0BDE6643CBD356BE63DF503ADBDEA83083D991DA63D668A78BDBDE859BB1E44EE3DEF9FECBD56FD883D63050E3ECBE3B43DA4919BBD58B6CA3DF573613DC13EA8BD8C71883DA99F09BEAC40EF3D1A162F3DFF26D33A99D3013E3CF0DBBDE956133E687A0C3E659D41BDBBAB203D5A7CEABDE0A2FDBD5133DF3D3E7FF1BAFDA991BDFCEE003E0D84B0BCDBC8243DB742DD3CC62E3ABD8AD7B93B0ABAEE3CAB658DBD8B78E7BD83040B3E104BA2BD66A4F9BD610EBD3DB1F0A23DBFC823BD631B7BBD105A06BE1DC8F03D156AF5BD4B5CCABDAB94F2BDF916C73DE19607BE6E7FC63DAF7EBF3D5F9EA03DBA3C2E3D5547713D29EB7ABD4F82AE3D725F80BD06482F3C51F64FBDE2FF6FBD9F6A0B3E3DD1DC3DF2E19D3CDBB76B3C2BBE033DB66D88BDA281D83D4A4782BC278DCBBD8F128DBDA079363D4DD3BF3D5576073EC7E7BEBDB511EC3B26E2A0BD4D8AC8BD0BEC92BD050A96BD8720FB3B5FD552BC1C02933C2C265D3D913530BD2A4F44BC37DD89BDCEF3B4BCA63AF33BACBAA4BD0F61BCBD5E59043DA438EABDC25F0A3E4DCDC73C">
  memref.global "private" @fc2_bias : memref<4xf32> = dense<[-0.0666165799, 0.0543289669, 0.0837553665, -0.108786605]>
  func.func @linear2d_0(%arg0: memref<1x64xf32>, %arg1: memref<48x64xf32>, %arg2: memref<48xf32>) -> memref<1x48xf32> attributes {itypes = "___", otypes = "_"} {
    %alloc = memref.alloc() {name = "Z"} : memref<1x48xf32>
    %alloc_0 = memref.alloc() {name = "buf"} : memref<48xf32>
    affine.for %arg3 = 0 to 1 {
      affine.for %arg4 = 0 to 48 {
        %c0_i32 = arith.constant 0 : i32
        %0 = arith.sitofp %c0_i32 : i32 to f32
        affine.store %0, %alloc_0[%arg4] {to = "buf"} : memref<48xf32>
      } {loop_name = "j_init", op_name = "S_j_init_0", pipeline_ii = 1 : ui32}
      affine.for %arg4 = 0 to 64 {
        %0 = affine.load %arg0[%arg3, %arg4] {from = "X"} : memref<1x64xf32>
        %alloc_1 = memref.alloc() {name = "x"} : memref<f32>
        affine.store %0, %alloc_1[] {to = "x"} : memref<f32>
        affine.for %arg5 = 0 to 48 {
          %1 = affine.load %alloc_1[] {from = "x"} : memref<f32>
          %2 = affine.load %arg1[%arg5, %arg4] {from = "W"} : memref<48x64xf32>
          %3 = arith.mulf %1, %2 : f32
          %4 = affine.load %alloc_0[%arg5] {from = "buf"} : memref<48xf32>
          %5 = arith.addf %4, %3 : f32
          affine.store %5, %alloc_0[%arg5] {to = "buf"} : memref<48xf32>
        } {loop_name = "j", op_name = "S_j_1", pipeline_ii = 1 : ui32}
      } {loop_name = "k", op_name = "S_k_1"}
      affine.for %arg4 = 0 to 48 {
        %0 = affine.load %alloc_0[%arg4] {from = "buf"} : memref<48xf32>
        %1 = affine.load %arg2[%arg4] {from = "b"} : memref<48xf32>
        %2 = arith.addf %0, %1 : f32
        affine.store %2, %alloc[%arg3, %arg4] {to = "Z"} : memref<1x48xf32>
      } {loop_name = "j_back", op_name = "S_j_back_3", pipeline_ii = 1 : ui32}
    } {loop_name = "i", op_name = "S_i_0"}
    return %alloc : memref<1x48xf32>
  }
  func.func @relu2d_0(%arg0: memref<1x48xf32>) -> memref<1x48xf32> attributes {itypes = "_", otypes = "_"} {
    %alloc = memref.alloc() {name = "Z"} : memref<1x48xf32>
    affine.for %arg1 = 0 to 1 {
      affine.for %arg2 = 0 to 48 {
        %0 = affine.load %arg0[%arg1, %arg2] {from = "X"} : memref<1x48xf32>
        %cst = arith.constant 0.000000e+00 : f32
        %1 = arith.maximumf %cst, %0 : f32
        affine.store %1, %alloc[%arg1, %arg2] {to = "Z"} : memref<1x48xf32>
      } {loop_name = "w", pipeline_ii = 1 : ui32}
    } {loop_name = "h", op_name = "S_h_w_0"}
    return %alloc : memref<1x48xf32>
  }
  func.func @linear2d_1(%arg0: memref<1x48xf32>, %arg1: memref<4x48xf32>, %arg2: memref<4xf32>) -> memref<1x4xf32> attributes {itypes = "___", otypes = "_"} {
    %alloc = memref.alloc() {name = "Z"} : memref<1x4xf32>
    %alloc_0 = memref.alloc() {name = "buf"} : memref<4xf32>
    affine.for %arg3 = 0 to 1 {
      affine.for %arg4 = 0 to 4 {
        %c0_i32 = arith.constant 0 : i32
        %0 = arith.sitofp %c0_i32 : i32 to f32
        affine.store %0, %alloc_0[%arg4] {to = "buf"} : memref<4xf32>
      } {loop_name = "j_init", op_name = "S_j_init_0", pipeline_ii = 1 : ui32}
      affine.for %arg4 = 0 to 48 {
        %0 = affine.load %arg0[%arg3, %arg4] {from = "X"} : memref<1x48xf32>
        %alloc_1 = memref.alloc() {name = "x"} : memref<f32>
        affine.store %0, %alloc_1[] {to = "x"} : memref<f32>
        affine.for %arg5 = 0 to 4 {
          %1 = affine.load %alloc_1[] {from = "x"} : memref<f32>
          %2 = affine.load %arg1[%arg5, %arg4] {from = "W"} : memref<4x48xf32>
          %3 = arith.mulf %1, %2 : f32
          %4 = affine.load %alloc_0[%arg5] {from = "buf"} : memref<4xf32>
          %5 = arith.addf %4, %3 : f32
          affine.store %5, %alloc_0[%arg5] {to = "buf"} : memref<4xf32>
        } {loop_name = "j", op_name = "S_j_1", pipeline_ii = 1 : ui32}
      } {loop_name = "k", op_name = "S_k_1"}
      affine.for %arg4 = 0 to 4 {
        %0 = affine.load %alloc_0[%arg4] {from = "buf"} : memref<4xf32>
        %1 = affine.load %arg2[%arg4] {from = "b"} : memref<4xf32>
        %2 = arith.addf %0, %1 : f32
        affine.store %2, %alloc[%arg3, %arg4] {to = "Z"} : memref<1x4xf32>
      } {loop_name = "j_back", op_name = "S_j_back_3", pipeline_ii = 1 : ui32}
    } {loop_name = "i", op_name = "S_i_0"}
    return %alloc : memref<1x4xf32>
  }
  func.func @forward(%arg0: memref<1x64xf32>) -> memref<1x4xf32> attributes {itypes = "_", otypes = "_"} {
    %0 = memref.get_global @fc1_weight : memref<48x64xf32>
    %1 = memref.get_global @fc1_bias : memref<48xf32>
    %2 = memref.get_global @fc2_weight : memref<4x48xf32>
    %3 = memref.get_global @fc2_bias : memref<4xf32>
    %4 = call @linear2d_0(%arg0, %0, %1) {name = "fc1"} : (memref<1x64xf32>, memref<48x64xf32>, memref<48xf32>) -> memref<1x48xf32>
    %5 = call @relu2d_0(%4) {name = "relu"} : (memref<1x48xf32>) -> memref<1x48xf32>
    %6 = call @linear2d_1(%5, %2, %3) {name = "fc2"} : (memref<1x48xf32>, memref<4x48xf32>, memref<4xf32>) -> memref<1x4xf32>
    return %6 : memref<1x4xf32>
  }
}
